{"<|endoftext|>":0,"!":1,"\"":2,"#":3,"$":4,"%":5,"&":6,"'":7,"(":8,")":9,"*":10,"+":11,",":12,"-":13,".":14,"/":15,"0":16,"1":17,"2":18,"3":19,"4":20,"5":21,"6":22,"7":23,"8":24,"9":25,":":26,";":27,"<":28,"=":29,">":30,"?":31,"@":32,"A":33,"B":34,"C":35,"D":36,"E":37,"F":38,"G":39,"H":40,"I":41,"J":42,"K":43,"L":44,"M":45,"N":46,"O":47,"P":48,"Q":49,"R":50,"S":51,"T":52,"U":53,"V":54,"W":55,"X":56,"Y":57,"Z":58,"[":59,"\\":60,"]":61,"^":62,"_":63,"`":64,"a":65,"b":66,"c":67,"d":68,"e":69,"f":70,"g":71,"h":72,"i":73,"j":74,"k":75,"l":76,"m":77,"n":78,"o":79,"p":80,"q":81,"r":82,"s":83,"t":84,"u":85,"v":86,"w":87,"x":88,"y":89,"z":90,"{":91,"|":92,"}":93,"~":94,"¡":95,"¢":96,"£":97,"¤":98,"¥":99,"¦":100,"§":101,"¨":102,"©":103,"ª":104,"«":105,"¬":106,"®":107,"¯":108,"°":109,"±":110,"²":111,"³":112,"´":113,"µ":114,"¶":115,"·":116,"¸":117,"¹":118,"º":119,"»":120,"¼":121,"½":122,"¾":123,"¿":124,"À":125,"Á":126,"Â":127,"Ã":128,"Ä":129,"Å":130,"Æ":131,"Ç":132,"È":133,"É":134,"Ê":135,"Ë":136,"Ì":137,"Í":138,"Î":139,"Ï":140,"Ð":141,"Ñ":142,"Ò":143,"Ó":144,"Ô":145,"Õ":146,"Ö":147,"×":148,"Ø":149,"Ù":150,"Ú":151,"Û":152,"Ü":153,"Ý":154,"Þ":155,"ß":156,"à":157,"á":158,"â":159,"ã":160,"ä":161,"å":162,"æ":163,"ç":164,"è":165,"é":166,"ê":167,"ë":168,"ì":169,"í":170,"î":171,"ï":172,"ð":173,"ñ":174,"ò":175,"ó":176,"ô":177,"õ":178,"ö":179,"÷":180,"ø":181,"ù":182,"ú":183,"û":184,"ü":185,"ý":186,"þ":187,"ÿ":188,"Ā":189,"ā":190,"Ă":191,"ă":192,"Ą":193,"ą":194,"Ć":195,"ć":196,"Ĉ":197,"ĉ":198,"Ċ":199,"ċ":200,"Č":201,"č":202,"Ď":203,"ď":204,"Đ":205,"đ":206,"Ē":207,"ē":208,"Ĕ":209,"ĕ":210,"Ė":211,"ė":212,"Ę":213,"ę":214,"Ě":215,"ě":216,"Ĝ":217,"ĝ":218,"Ğ":219,"ğ":220,"Ġ":221,"ġ":222,"Ģ":223,"ģ":224,"Ĥ":225,"ĥ":226,"Ħ":227,"ħ":228,"Ĩ":229,"ĩ":230,"Ī":231,"ī":232,"Ĭ":233,"ĭ":234,"Į":235,"į":236,"İ":237,"ı":238,"Ĳ":239,"ĳ":240,"Ĵ":241,"ĵ":242,"Ķ":243,"ķ":244,"ĸ":245,"Ĺ":246,"ĺ":247,"Ļ":248,"ļ":249,"Ľ":250,"ľ":251,"Ŀ":252,"ŀ":253,"Ł":254,"ł":255,"Ń":256,"Ġt":257,"he":258,"Ġa":259,"in":260,"Ġthe":261,"čĊ":262,"Ġs":263,"re":264,"nd":265,"Ġw":266,"Ġo":267,"er":268,"ha":269,"ou":270,"Ġb":271,"it":272,"Ġm":273,"on":274,"Ġc":275,"Ġf":276,"or":277,"is":278,"ll":279,"es":280,"Ġand":281,"ing":282,"en":283,"ed":284,"Ġof":285,"Ġp":286,"Ġd":287,"an":288,"Ġto":289,"Ġl":290,"Ġin":291,"at":292,"ar":293,"Ġy":294,"Ġg":295,"ĠI":296,"Ġn":297,"as":298,"om":299,"hat":300,"Ġh":301,"ic":302,"et":303,"ow":304,"ot":305,"us":306,"Ġyou":307,"le":308,"ay":309,"Ġth":310,"ut":311,"Ġhe":312,"Ġbe":313,"al":314,"ig":315,"id":316,"ve":317,"Ġthat":318,"ĠA":319,"Ġu":320,"Ġha":321,"Ġe":322,"Ġit":323,"ld":324,"ke":325,"ac":326,"Ġon":327,"am":328,"ion":329,"ent":330,"im":331,"Ġre":332,"se":333,"Ġfor":334,"ro":335,"ver":336,"ith":337,"st":338,"ir":339,"Ġst":340,"ad":341,"ĠT":342,"'s":343,"ĠS":344,"Ġis":345,"Ġme":346,"ht":347,"Ġwith":348,"ur":349,"ill":350,"nt":351,"Ġwe":352,"oo":353,"ly":354,"Ġmy":355,"Ġwh":356,"Ġr":357,"ĠC":358,"Ġli":359,"her":360,"ĠM":361,"ĠB":362,"ch":363,"Ġk":364,"il":365,"ĠL":366,"el":367,"Ġwas":368,"Ġ(":369,"th":370,"Ġthey":371,"and":372,"ck":373,"all":374,"ce":375,"Ġse":376,"ight":377,"'t":378,"ore":379,"Ġas":380,"Ġup":381,"ter":382,"Ġhis":383,"Ġ1":384,"ain":385,"Ġsa":386,"ĠG":387,"ĠAnd":388,"Ġsh":389,"op":390,"ers":391,"Ġat":392,"ri":393,"Ġan":394,"Ġall":395,"Ġnot":396,"'m":397,"ome":398,"est":399,"ĠJ":400,"rom":401,"ct":402,"ĠP":403,"ĠW":404,"ess":405,"ation":406,"hen":407,"Ġsha":408,"if":409,"ust":410,"em":411,"un":412,"od":413,"ra":414,"Ġ2":415,"ĠD":416,"ĠH":417,"Ġne":418,"ĠN":419,"Ġlike":420,"Ġye":421,"ol":422,"Ġj":423,"Ġthis":424,"Ġyour":425,"Ġfrom":426,"ame":427,"Ġthem":428,"ould":429,"ack":430,"um":431,"ep":432,"Ġsaid":433,"Ġunt":434,"ord":435,"ag":436,"ant":437,"The":438,"pe":439,"ab":440,"ah":441,"Ġdo":442,"Ġout":443,"ĠF":444,"ake":445,"ĠR":446,"Ġhim":447,"Ġhave":448,"res":449,"ie":450,"Ġkn":451,"red":452,"one":453,"Ġgo":454,"art":455,"oug":456,"ul":457,"Ġde":458,"Ġby":459,"ak":460,"Ġunto":461,"ast":462,"Ġshall":463,"os":464,"Ġare":465,"Ġman":466,"Ġso":467,"pp":468,"Ġcom":469,"out":470,"use":471,"Ġcon":472,"uck":473,"Ġbut":474,"ich":475,"ive":476,"Ġget":477,"ong":478,"Ġal":479,"ate":480,"ist":481,"Ġv":482,"igg":483,"own":484,"Ġsay":485,"Ġtheir":486,"ĠE":487,"Ġcan":488,"han":489,"ĠThe":490,"ven":491,"Ġwill":492,"Ġpl":493,"And":494,"our":495,"Ġle":496,"Ġtr":497,"Ġpro":498,"Ġwho":499,"ies":500,"qu":501,"ine":502,"ud":503,"ook":504,"ick":505,"Ġknow":506,"Ġwhen":507,"ard":508,"ause":509,"ap":510,"ity":511,"Ġor":512,"ound":513,"Ġno":514,"Ġhad":515,"ort":516,"to":517,"Ġgot":518,"the":519,"ood":520,"Ġwhich":521,"ell":522,"Ġthere":523,"ice":524,"ĠO":525,"Ġ\"":526,"hi":527,"Ġab":528,"Ġoff":529,"Ġwhat":530,"ge":531,"Ġsp":532,"Ġone":533,"Ġher":534,"ass":535,"Ġex":536,"Ġwere":537,"You":538,"very":539,"ide":540,"Ġsu":541,"OR":542,"ous":543,"ĠK":544,"ind":545,"old":546,"ment":547,"Ġpe":548,"Ġshe":549,"Ġlo":550,"Ġag":551,"Ġwor":552,"eth":553,"Ġbl":554,"Ġnigg":555,"fore":556,"ime":557,"ace":558,"fe":559,"ough":560,"Ġbr":561,"ings":562,"Ġ3":563,"Ġ'":564,"ORD":565,"Ġjust":566,"Ġdon":567,"Ġfe":568,"ost":569,"Ġcl":570,"ren":571,"Ġus":572,"ople":573,"ry":574,"so":575,"ĠGod":576,"other":577,"ond":578,"Ġdown":579,"Ġaf":580,"Ġif":581,"itt":582,"Ġar":583,"Ġnow":584,"Ġmore":585,"erse":586,"ĠLORD":587,"00":588,"here":589,"ug":590,"ne":591,"Ġday":592,"iv":593,"ire":594,"Ġro":595,"Ġpeople":596,"na":597,"Ġtw":598,"ĠU":599,"Ġsee":600,"Ġagain":601,"ub":602,"pt":603,"Ġover":604,"Ġdid":605,"ip":606,"are":607,"reat":608,"ars":609,"Ġback":610,"Ġhas":611,"ink":612,"Ġfl":613,"Verse":614,"Ġabout":615,"Ġinto":616,"cc":617,"ue":618,"Ġtime":619,"ans":620,"ure":621,"Ġsome":622,"Ġbeen":623,"ree":624,"Ġthou":625,"ther":626,"Ġam":627,"ite":628,"ark":629,"ally":630,"Ġgr":631,"way":632,"ia":633,"sel":634,"ade":635,"ose":636,"Ġpr":637,"av":638,"Ġcome":639,"Ġmake":640,"urn":641,"of":642,"Ġcame":643,"Ġsc":644,"Ġthan":645,"ber":646,"Ġafter":647,"Ġain":648,"ok":649,"Ġthy":650,"cause":651,"ock":652,"Ġevery":653,"Ġthr":654,"ount":655,"But":656,"Ġlet":657,"per":658,"Ġte":659,"Ġwould":660,"01":661,"aw":662,"oy":663,"iz":664,"ull":665,"Ġhand":666,"ions":667,"hor":668,"ish":669,"Ġalso":670,"It":671,"Ġ5":672,"we":673,"Ġ4":674,"ĠSt":675,"Ġcha":676,"ather":677,"Ġad":678,"Ġthen":679,"Ġper":680,"Ġcomp":681,"Ġour":682,"ial":683,"cl":684,"be":685,"Ġke":686,"Ġfuck":687,"end":688,"ress":689,"ew":690,"ought":691,"ign":692,"day":693,"ance":694,"ase":695,"Ġupon":696,"alk":697,"Ġen":698,"Ġright":699,"Ġhat":700,"ĠIs":701,"ouse":702,"ts":703,"oll":704,"Ġtwo":705,"hed":706,"irst":707,"Ġch":708,"Ġshit":709,"Ġcould":710,"ff":711,"Ġthese":712,"ach":713,"nder":714,"Ġway":715,"ise":716,"Ye":717,"Ġeven":718,"Ġnigga":719,"Ġson":720,"Ġun":721,"ness":722,"ang":723,"age":724,"Ġbefore":725,"igh":726,"Ġcall":727,"mer":728,"Ġrep":729,"Ġpass":730,"Ġhow":731,"his":732,"Ġthee":733,"ob":734,"Ġbit":735,"..":736,"Ġlook":737,"ĠV":738,"ile":739,"Ġother":740,"Ġshould":741,"oin":742,"ning":743,"ations":744,"'ll":745,"Ġwhere":746,"ĠHe":747,"ng":748,"Ġqu":749,"10":750,"ave":751,"ble":752,"Ġspe":753,"og":754,"Ġcr":755,"ump":756,"Ġ7":757,"hes":758,"Ġcont":759,"Ġsm":760,"ye":761,"Ġmade":762,"com":763,"Ġsl":764,"ath":765,"Ġim":766,"Ġany":767,"erv":768,"ty":769,"Ġfirst":770,"Ġwant":771,"Ġpart":772,"ors":773,"oney":774,"11":775,"We":776,"ence":777,"ated":778,"Ġtake":779,"Ġland":780,"ary":781,"ft":782,"ody":783,"les":784,"iss":785,"Ġwork":786,"Ġplay":787,"So":788,"Ġniggas":789,"act":790,"Ġacc":791,"Ġnew":792,"ash":793,"Ġthrough":794,"Ġpre":795,"Ġagainst":796,"for":797,"hold":798,"horus":799,",\"":800,"Ġits":801,"Ġnever":802,"ov":803,"Ġchi":804,"ail":805,"Chorus":806,"Ġcomm":807,"Ġbet":808,"ove":809,"Ġput":810,"ĠBut":811,"ident":812,".\"":813,"He":814,"wn":815,"ĠCh":816,"Ġking":817,"Ġgood":818,"Ġbre":819,"Ġwr":820,"Ġword":821,"ee":822,"Ġchild":823,"ps":824,"'re":825,"rael":826,"Ġres":827,"oc":828,"irl":829,"Ġdis":830,"self":831,"oth":832,"Ġlove":833,"ild":834,"Ġ201":835,"pl":836,"Ġlife":837,"Ġmay":838,"ict":839,"12":840,"ied":841,"Ġwat":842,"Ġ6":843,"Ġneed":844,"Ġkeep":845,"13":846,"Ġmen":847,"Ġstr":848,"man":849,"Ġunder":850,"able":851,"Ġthink":852,"ĠFor":853,"Ġear":854,"Ġrem":855,"iness":856,"Ġthings":857,"oh":858,"Yeah":859,"Ġhar":860,"%;":861,"aby":862,"Ġbecause":863,"ction":864,"Ġhouse":865,"AP":866,"Ġass":867,"Ġgreat":868,"Ġhead":869,"14":870,"uch":871,"ĠIsrael":872,"ĠLord":873,"Ġ8":874,"Ġhere":875,"Ġworld":876,"ward":877,"ory":878,"Ġonly":879,"orn":880,"Ġlast":881,"up":882,"ets":883,"ool":884,"__":885,"Ġtry":886,"Ġfeel":887,"ever":888,"anc":889,"hy":890,"ious":891,"In":892,"15":893,"Ġrec":894,"ates":895,"ult":896,"Ġmoney":897,"Ġsec":898,"und":899,"tain":900,"ves":901,"Ġgive":902,"Cause":903,"ons":904,"Ġstill":905,"Ġhigh":906,"ens":907,"ower":908,"usiness":909,"Ġmany":910,"ix":911,"!)":912,"Ġname":913,"Ġco":914,"ian":915,"ittle":916,"Ġhath":917,"ru":918,"Ġmight":919,"ont":920,"Ġyear":921,"Ġsin":922,"Ġdr":923,"Ġtell":924,"ho":925,"Ġchildren":926,"Ġwent":927,"That":928,"ĠY":929,"az":930,"lic":931,"Ġgl":932,"ady":933,"led":934,"oss":935,"aug":936,"anna":937,"te":938,"Ġaway":939,"20":940,"outh":941,"Ġlong":942,"ents":943,"Ġmother":944,"Ġthree":945,"Ġrun":946,"get":947,"Ġyears":948,"ĠTh":949,"Ġdes":950,"Ġbitch":951,"16":952,"Ġsw":953,"Ġend":954,"Ġown":955,"Ġgirl":956,"23":957,"Ġbu":958,"18":959,"ites":960,"Ġgon":961,"ĠBe":962,"My":963,"ĠIn":964,"Now":965,"ities":966,"St":967,"ta":968,"Ġchan":969,"Ġlaw":970,"24":971,"Ġwanna":972,"vers":973,"ving":974,"Ġbel":975,"land":976,"Ġserv":977,"ww":978,"Ġpres":979,"Ġlittle":980,"ale":981,"du":982,"Ġthose":983,"Ġho":984,"17":985,"Ġatt":986,"What":987,"esday":988,"Ġbeg":989,"Ġkill":990,"Ġsays":991,"Ġheart":992,"They":993,"ting":994,"Ġtoo":995,"Ġ9":996,"Ġlead":997,"oot":998,"Ġnight":999,"),":1000,"Ġshow":1001,"Ġyeah":1002,"19":1003,"Ġreal":1004,"ition":1005,"Ġcount":1006,"Ġturn":1007,"Ġev":1008,"ike":1009,"Ġsaying":1010,"Ġem":1011,"ĠAl":1012,"eg":1013,"This":1014,"Ġhard":1015,"body":1016,"ĠTr":1017,"Ġ&":1018,"Ġtalk":1019,"Ġmuch":1020,"ily":1021,"ither":1022,"amp":1023,"If":1024,"lt":1025,"Ġset":1026,"ect":1027,"ks":1028,"ream":1029,"Ġbaby":1030,"22":1031,"ĠZ":1032,"ĠIt":1033,"Ġtri":1034,"Ġfather":1035,"Ġ10":1036,"pect":1037,"Ġgu":1038,"aking":1039,"vel":1040,"imes":1041,"ical":1042,"ny":1043,"Ġapp":1044,"Ġcity":1045,"21":1046,"fuck":1047,"ames":1048,"Ġya":1049,"ss":1050,"Ġgame":1051,"pen":1052,"ER":1053,"Ġfour":1054,"aught":1055,"30":1056,"ĠĠ":1057,"Ġever":1058,"Ġhome":1059,"Ġind":1060,"Ġcar":1061,"als":1062,"ording":1063,"Ġstart":1064,"Ġamong":1065,"ved":1066,"Ġwhile":1067,"Ġthing":1068,"Ġcons":1069,"Ġsun":1070,"Ġmon":1071,"uss":1072,"Ġbring":1073,"ced":1074,"Ġpol":1075,"Ġaround":1076,"25":1077,"ĠNew":1078,"min":1079,"unt":1080,"Ġinv":1081,"less":1082,"illion":1083,"Ġche":1084,"ec":1085,"Ġreport":1086,"Ġsame":1087,"ful":1088,"its":1089,"form":1090,"Ġmark":1091,"Ġdays":1092,"When":1093,"Ġbo":1094,"Ġret":1095,"IN":1096,"Ġstop":1097,"Ġfin":1098,"ai":1099,"Ġimp":1100,"ants":1101,"Hook":1102,"Ġhear":1103,"oud":1104,"ner":1105,"Ġhel":1106,"Ġbehold":1107,"Ġanother":1108,"ib":1109,"Ġwom":1110,"ces":1111,"Ġdone":1112,"ited":1113,"ason":1114,"aid":1115,"ins":1116,"Ġface":1117,"Ġact":1118,"ON":1119,"me":1120,"Ġ19":1121,"ĠLe":1122,"Ġwhy":1123,"atch":1124,"Ġtook":1125,"Ġcompan":1126,"Ġsk":1127,"Ġbeing":1128,"lease":1129,"Ġold":1130,"ern":1131,"Ġwar":1132,"ĠUn":1133,"Ġcap":1134,"Ġstand":1135,"Ġsupp":1136,"ott":1137,"Ġbetter":1138,"ublic":1139,"Ġwords":1140,"ering":1141,"Ġtold":1142,"xt":1143,"oint":1144,"clud":1145,"Ġlight":1146,"Ġplace":1147,"ments":1148,"Ġpri":1149,"ank":1150,"rew":1151,"Ġdel":1152,"ches":1153,"ared":1154,"att":1155,"ats":1156,"ged":1157,"arch":1158,"Ġra":1159,"Ġboy":1160,"Ġmost":1161,"oul":1162,"ters":1163,"ope":1164,"ollow":1165,"Oh":1166,"cent":1167,"har":1168,"rop":1169,"Ġwell":1170,"ines":1171,"ating":1172,"...":1173,"oun":1174,"Ġfound":1175,"Ġins":1176,"Ġchar":1177,"ci":1178,"Ġcause":1179,"cy":1180,"ek":1181,"yes":1182,"ina":1183,"ird":1184,"Ġsom":1185,"ĠAs":1186,"Ġwon":1187,"Ġnoth":1188,"26":1189,"Ġleft":1190,"Ġhit":1191,"Ġvery":1192,"Ġfam":1193,"ational":1194,"She":1195,"Ġadd":1196,"',":1197,"Ġheard":1198,"uh":1199,"bs":1200,"oup":1201,"Ġmin":1202,"Ġshalt":1203,"Ġsuch":1204,"row":1205,"Ġjud":1206,"ling":1207,"Ġaccording":1208,"Ġcalled":1209,"ma":1210,"oke":1211,"Ġhelp":1212,"All":1213,"ier":1214,"Ġstre":1215,"ric":1216,"Ġhold":1217,"ĠTrump":1218,"Ġinclud":1219,"Ġbelie":1220,"Ġfull":1221,"ys":1222,"Ġent":1223,"ures":1224,"'ve":1225,"Int":1226,"27":1227,"000":1228,"Ġsent":1229,"Ġearth":1230,"Ġmotherfuck":1231,"rist":1232,"Ġinter":1233,"der":1234,"Ġforth":1235,"Ġteam":1236,"Ġap":1237,"Ġfire":1238,"gy":1239,"ĠThen":1240,"Ġbro":1241,"ual":1242,"Ġask":1243,"Ġsign":1244,"ork":1245,"pr":1246,"meric":1247,"Ġreally":1248,"oice":1249,"ton":1250,"Ġfr":1251,"Ġnor":1252,"ried":1253,"Ġ13":1254,"ef":1255,"Ġoffic":1256,"gr":1257,"ms":1258,"Ġmust":1259,"ased":1260,"that":1261,"Ġopen":1262,"thing":1263,"ered":1264,"ater":1265,"ĠAm":1266,"Ġwalk":1267,"tt":1268,"riend":1269,"Ġ$":1270,"Ġwithout":1271,"Ġinc":1272,"Ġ15":1273,"Ġgoing":1274,"sh":1275,"Ġlive":1276,"uff":1277,"Ġmind":1278,"ways":1279,"Ġfall":1280,"To":1281,"ote":1282,"els":1283,"Ġcommand":1284,"Ġhands":1285,"Ġeyes":1286,"Ġdead":1287,"Ġpower":1288,"ement":1289,"Ġcle":1290,"ush":1291,"ife":1292,"iew":1293,"No":1294,"uring":1295,"zy":1296,"28":1297,"Ġgotta":1298,"Ġcour":1299,"Ġthought":1300,"now":1301,"Ġmonth":1302,"iah":1303,"Ġtop":1304,"Ġsur":1305,"Ġwin":1306,"Ġrest":1307,"Ġreg":1308,"ex":1309,"med":1310,"Ġdep":1311,"ph":1312,"vern":1313,"Ġ14":1314,"mb":1315,"Ġdri":1316,"ger":1317,"ots":1318,"Ġbusiness":1319,"iver":1320,"Ġwhole":1321,"Ġsecond":1322,"Ġyet":1323,"Ġsaw":1324,"Th":1325,"ĠNow":1326,"pped":1327,"ics":1328,"aven":1329,"lf":1330,"Ġ0":1331,"Ġside":1332,"Ġdeath":1333,"Ġsaith":1334,"umb":1335,"Ġsince":1336,"oor":1337,"Ġbrought":1338,"esus":1339,"Ġ20":1340,"Ġcut":1341,"br":1342,"Ġpercent":1343,"Ġwha":1344,"ĠDav":1345,"ield":1346,"eter":1347,"ES":1348,"Ġwa":1349,"gether":1350,"Ġac":1351,"Ġcare":1352,"//":1353,"Ġmine":1354,"://":1355,"io":1356,"Ġyoung":1357,"ows":1358,"mp":1359,"ross":1360,"stand":1361,"Ġprop":1362,"Ġbest":1363,"Ġused":1364,"Ġthough":1365,"Ġdec":1366,"ĠAmeric":1367,"Ġseen":1368,"Ġrap":1369,"ned":1370,"Ġfind":1371,"Ġboth":1372,"Ġrock":1373,"urs":1374,"Ġ-":1375,"Ġyo":1376,"Ġeat":1377,"Ġtak":1378,"Ġsometh":1379,"undred":1380,"Ġfollow":1381,"Ġsons":1382,"ject":1383,"cer":1384,"come":1385,"selves":1386,"ener":1387,"Get":1388,"Ġgovern":1389,"Ġfa":1390,"Ġhast":1391,"ision":1392,"29":1393,"Ġbad":1394,"Ġrel":1395,"my":1396,"atter":1397,"Ġpop":1398,"Ġprov":1399,"olog":1400,"Ġsoul":1401,"ĠBr":1402,"31":1403,"Ġdef":1404,"Ġdisc":1405,"Ġbig":1406,"Ġfive":1407,"Ġgun":1408,"unk":1409,"Ġstate":1410,"ĠJesus":1411,"yst":1412,"Ġnext":1413,"Ġspeak":1414,"dom":1415,"hall":1416,"hip":1417,"ĠChrist":1418,"ane":1419,"ute":1420,"201":1421,"not":1422,"Ġdest":1423,"Ġnear":1424,"ohn":1425,"On":1426,"ĠDavid":1427,"ones":1428,"Be":1429,"Ġstay":1430,"ief":1431,"ude":1432,"dy":1433,"For":1434,"ished":1435,"Ġblack":1436,"Ġser":1437,"Ġint":1438,"ĠThere":1439,"Ġuntil":1440,"rest":1441,"Ġwatch":1442,"Ġfore":1443,"ched":1444,"Ġdie":1445,"Ġ12":1446,"alth":1447,"fl":1448,"Ġmean":1449,"rib":1450,"itch":1451,"Ġmarket":1452,"Ġhapp":1453,"Ġwater":1454,"iven":1455,"ama":1456,"Ġsix":1457,"ween":1458,"Don":1459,"ĠYou":1460,"Ġmiss":1461,"Ġhot":1462,"ĠQ":1463,"ices":1464,"Ġ11":1465,"ĠWe":1466,"ised":1467,"ĠJer":1468,"Ġleave":1469,"Ġoh":1470,"Ġseem":1471,"2018":1472,"nesday":1473,"ednesday":1474,"icked":1475,"ible":1476,"ĠSo":1477,"ĠMos":1478,"Ġtherefore":1479,"Ġtogether":1480,"rent":1481,"Ġroll":1482,"Ġele":1483,"Ġround":1484,"ĠThey":1485,"Ġmillion":1486,"___":1487,"ges":1488,"Ġgave":1489,"Ġprodu":1490,"Ġreturn":1491,"Intro":1492,"Ġsle":1493,"ret":1494,"Ġswe":1495,"ousand":1496,"Ġmed":1497,"Uh":1498,"hil":1499,"Ġ18":1500,"ison":1501,"Ġblood":1502,"Ġnothing":1503,"ired":1504,"Ġaut":1505,"ĠSp":1506,"Ġkid":1507,"ech":1508,"hab":1509,"ev":1510,"fect":1511,"With":1512,"Nigg":1513,"Ġnum":1514,"Ġhundred":1515,"Ġstra":1516,"Just":1517,"Ġstat":1518,"Ġsing":1519,"Ġfight":1520,"Ġtra":1521,"Ġexp":1522,"Ġmove":1523,"Ġbetween":1524,"Ġtre":1525,"inn":1526,"Ġlot":1527,"ĠAr":1528,"Ġyea":1529,"Ġadv":1530,"side":1531,"'d":1532,"Ġinst":1533,"thren":1534,"ĠIm":1535,"resident":1536,"Ġcur":1537,"Ġhalf":1538,"ense":1539,"Ġgone":1540,"Ġbreak":1541,"Ġgrow":1542,"Ġbuild":1543,"iam":1544,"Ġbeat":1545,"Ġfriend":1546,"ĠWh":1547,"with":1548,"Ġmom":1549,"Ġmov":1550,"Ġbrother":1551,"Sh":1552,"Ġpers":1553,"Ġ16":1554,"ize":1555,"uesday":1556,"Ġhimself":1557,"Ġgonna":1558,"Ġcompany":1559,"Ġmid":1560,"Ġdif":1561,"ized":1562,"Ġfar":1563,"chool":1564,"Ġpay":1565,"Ġstrong":1566,"Ġrece":1567,"ĠCom":1568,"Ġwild":1569,"Ġinvest":1570,"cial":1571,"Ġwit":1572,"ains":1573,"by":1574,"Ġconf":1575,"Ġart":1576,"used":1577,"Ġpresident":1578,"bout":1579,"AN":1580,"32":1581,"Ġshoot":1582,"Let":1583,"let":1584,"right":1585,"son":1586,"alem":1587,"Ġbur":1588,"Ġsub":1589,"new":1590,"amn":1591,"Ġalways":1592,"Ġleg":1593,"ĠShe":1594,"Ġans":1595,"Ġwhe":1596,"Ġbody":1597,"Ġmeet":1598,"iqu":1599,"Ġdev":1600,"ened":1601,"Ġheaven":1602,"Ġpray":1603,"ember":1604,"year":1605,"cha":1606,"Ġmouth":1607,"Ġtimes":1608,"ax":1609,"usalem":1610,"Ġthousand":1611,"ĠMan":1612,"Ġter":1613,"ĠJud":1614,"Ġmor":1615,"Ġfree":1616,"con":1617,"irit":1618,"ung":1619,"cept":1620,"enty":1621,"ĠWednesday":1622,"Ġplan":1623,"Ġwind":1624,"As":1625,"33":1626,"ests":1627,"aces":1628,"Who":1629,"ipp":1630,"Ġuse":1631,"head":1632,"Ġste":1633,"ists":1634,"Ġtrans":1635,"tin":1636,"Ġwhite":1637,"Ġdeal":1638,"Ġ2018":1639,"ilt":1640,"ĠJe":1641,"Ġmil":1642,"Ġposs":1643,"Ġvis":1644,"Ġwhom":1645,"Ġcontin":1646,"ital":1647,"Br":1648,"Ġsomething":1649,"Got":1650,"oints":1651,"Ġfly":1652,"Fuck":1653,"aul":1654,"ĠFr":1655,"ĠPresident":1656,"ĠRep":1657,"Ġrecord":1658,"over":1659,"Ġbrethren":1660,"Ġbelieve":1661,"orth":1662,"ister":1663,"EN":1664,"www":1665,"Ġcra":1666,"Ġgra":1667,"Ġstep":1668,"Ġdream":1669,"ĠCha":1670,"ues":1671,"Ġkind":1672,"onday":1673,"Ġsea":1674,"Ġbegan":1675,"Ġfell":1676,"ives":1677,"mon":1678,"ution":1679,"ple":1680,"Ġmult":1681,"Ġlist":1682,"Ġopp":1683,"ĠJohn":1684,"Ġball":1685,"aster":1686,"Ġlow":1687,"Ġwomen":1688,"roy":1689,"ĠBehold":1690,"aman":1691,"Out":1692,"Ġmak":1693,"Ġvoice":1694,"ĠNep":1695,"ĠAf":1696,"cle":1697,"osed":1698,"ĠTuesday":1699,"Ġcountry":1700,"ĠCar":1701,"Like":1702,"Ġgiven":1703,"Then":1704,"Ġair":1705,"Ġ17":1706,"Ġprom":1707,"ative":1708,"ific":1709,"Ġgold":1710,"Ġhom":1711,"ney":1712,"ular":1713,"Ġuh":1714,"attle":1715,"gypt":1716,"aj":1717,"Ġneither":1718,"irect":1719,"wire":1720,"ĠYe":1721,"Ġ=":1722,"Ġ50":1723,"ility":1724,"Every":1725,"Ġthereof":1726,"Ġchange":1727,"Ġappe":1728,"ĠWhat":1729,"Ġdrink":1730,"reen":1731,"esh":1732,"wh":1733,"Ġann":1734,"Ġseason":1735,"Ġsure":1736,"Ġeach":1737,"ĠThat":1738,"Ġweek":1739,"Ġgovernment":1740,"ĠAb":1741,"Ġpoints":1742,"Ġofficial":1743,"Ġdra":1744,"Ġduring":1745,"Ġdoes":1746,"Ġcoming":1747,"ron":1748,"Ġschool":1749,"ĠYork":1750,"?)":1751,"het":1752,"ĠMar":1753,"eb":1754,"ĠBl":1755,"Ġknown":1756,"Ġtech":1757,"ient":1758,"Ġincluding":1759,"Ġsal":1760,"ified":1761,"ĠWest":1762,"Ġ24":1763,"Ġblock":1764,"Ġwait":1765,"Ġline":1766,"Ġgetting":1767,"ĠMoses":1768,"Ġgener":1769,"Yo":1770,"lin":1771,"ted":1772,"ĠThis":1773,"Ġcry":1774,"Ġthine":1775,"Ġshot":1776,"ĠJerusalem":1777,"shall":1778,"men":1779,"--":1780,"ury":1781,"ystem":1782,"de":1783,"ĠMonday":1784,"Ġref":1785,"vin":1786,"ored":1787,"ained":1788,"ards":1789,"Ġel":1790,"Ġpeace":1791,"Ġwhale":1792,"ĠIf":1793,"news":1794,"Ġdat":1795,"Ġob":1796,"Ġmur":1797,"istr":1798,"cess":1799,"Ġship":1800,"Al":1801,"Is":1802,"Ġcast":1803,"There":1804,"AC":1805,"Ġdaught":1806,"hile":1807,"Ġpolice":1808,"How":1809,"US":1810,"Ġcoll":1811,"Ġfeet":1812,"Ġpast":1813,"Ġlar":1814,"pc":1815,"ĠRe":1816,"ĠUnited":1817,"Ġdou":1818,"Ġdw":1819,"Ġunderstand":1820,"34":1821,"Ġpull":1822,"ages":1823,"eous":1824,"omin":1825,"Ġknew":1826,"ceed":1827,"Ġsound":1828,"Ġtest":1829,"Ġlay":1830,"Ġevil":1831,"Ġloc":1832,"ham":1833,"ashing":1834,"Ġext":1835,"Ġready":1836,"Ġcheck":1837,"air":1838,"Ġfear":1839,"Ġnumber":1840,"Ġthus":1841,"IC":1842,"ĠEgypt":1843,"Ġspok":1844,"Ġdidn":1845,"ze":1846,"AL":1847,"ana":1848,"Ġthird":1849,"them":1850,"Ġseven":1851,"mber":1852,"ĠBen":1853,"Ġdiffe":1854,"oe":1855,"Ġcond":1856,"uth":1857,"Ġhtt":1858,"ention":1859,"orts":1860,"Ġfuckin":1861,"ured":1862,"ived":1863,"off":1864,"Ġstraight":1865,"ready":1866,"ides":1867,"Ġmount":1868,"Ġfew":1869,"ying":1870,"irty":1871,"acks":1872,"Ġtaken":1873,"ĠSe":1874,"Ġrelease":1875,"Ġexpect":1876,"Ġflow":1877,"ik":1878,"ivers":1879,"Ġfathers":1880,"urity":1881,"ertain":1882,"Ġfamily":1883,"Ġperson":1884,"af":1885,"den":1886,"oon":1887,"Hey":1888,"Ġfront":1889,"Ġtechn":1890,"ĠFl":1891,"Ġmer":1892,"Ġgirls":1893,"Ġsol":1894,"Ġmar":1895,"Ġdeep":1896,"itten":1897,"ior":1898,"uel":1899,"Ġrhy":1900,"Ġang":1901,"Ġtou":1902,"Ġph":1903,"Ġpress":1904,"ĠNo":1905,"Ġenough":1906,"ency":1907,"icks":1908,"AT":1909,"Outro":1910,"Ġonce":1911,"Ġ25":1912,"ped":1913,"Ġblow":1914,"ĠInd":1915,"Ġhope":1916,"ims":1917,"ĠSouth":1918,"ING":1919,"Some":1920,"Ġmus":1921,"orm":1922,"Ġdem":1923,"Ġdark":1924,"Ġhaving":1925,"Ġstud":1926,"ĠDe":1927,"Ġlost":1928,"ĠGr":1929,"ral":1930,"Ġexper":1931,"Ġburn":1932,"ills":1933,"Ġrul":1934,"Ġcloud":1935,"Ġbitches":1936,"hind":1937,"read":1938,"ange":1939,"Ġdestroy":1940,"Ġwall":1941,"Ġpur":1942,"Ġlear":1943,"gth":1944,"ask":1945,"Ġwife":1946,"Ġbull":1947,"ĠAn":1948,"ĠJudah":1949,"most":1950,"Ġprot":1951,"Ġsunny":1952,"AS":1953,"ging":1954,"Ġpublic":1955,"Ġprof":1956,"ually":1957,"iol":1958,"Ġcase":1959,"Ġhost":1960,"gh":1961,"Ġmet":1962,"Ġfast":1963,"ĠAll":1964,"ĠRuss":1965,"Ġclub":1966,"Ġsmall":1967,"35":1968,"ĠNorth":1969,"Ġprev":1970,"Ġlooking":1971,"go":1972,"Ġmorning":1973,"Look":1974,"Ġtrying":1975,"Ġsil":1976,"Ġrequ":1977,"ries":1978,"ĠEl":1979,"TH":1980,"elt":1981,"ians":1982,"la":1983,"Ġill":1984,"ene":1985,"Ġrain":1986,"Ġla":1987,"Ġsong":1988,"ĠCal":1989,"oron":1990,"arter":1991,"Can":1992,"Ġtem":1993,"unto":1994,"uro":1995,"illed":1996,"they":1997,"Ġfaith":1998,"36":1999,"Ġoffering":2000,"Ġincre":2001,"Ġcent":2002,"Ġhur":2003,"uc":2004,"Ġwond":2005,"Ġwicked":2006,"ience":2007,"Ġstri":2008,"Ġinform":2009,"Ġalready":2010,"Ġgroup":2011,"gan":2012,"Ġtoward":2013,"iet":2014,"Ġhour":2015,"AR":2016,"co":2017,"Ġthemselves":2018,"home":2019,"Ġparty":2020,"Ġpain":2021,"Ġpoint":2022,"ĠWhere":2023,"Ġspake":2024,"velop":2025,"ĠPhil":2026,"Ġthrow":2027,"Ġnews":2028,"Ġhealth":2029,"Ġbehind":2030,"Ġindust":2031,"Ġsend":2032,"Ġhoes":2033,"Ġhood":2034,"Ġride":2035,"Ġwoman":2036,"imp":2037,"Ġdrop":2038,"Ġquick":2039,"Ġsleep":2040,"atic":2041,"ald":2042,"Ġcourt":2043,"Ġfact":2044,"Ġsex":2045,"ampa":2046,"Ġkilled":2047,"rence":2048,"obal":2049,"Ġca":2050,"Ġsave":2051,"ĠSha":2052,"ler":2053,"eder":2054,"Ġple":2055,"Ġeight":2056,"Ġformer":2057,"Ch":2058,"One":2059,"wo":2060,"rem":2061,"Ġchief":2062,"ague":2063,"Ġdont":2064,"business":2065,"time":2066,"Ġshort":2067,"yy":2068,"Ġhate":2069,"Ġwrong":2070,"yri":2071,"ĠGu":2072,"Ġclose":2073,"Ġbar":2074,"Ġwhether":2075,"ese":2076,"Ġsupport":2077,"Ġty":2078,"Ġsit":2079,"reg":2080,"Ġdoor":2081,"Ġ30":2082,"ately":2083,"Ġsn":2084,"Ġbless":2085,"Ġsold":2086,"ugg":2087,"ocr":2088,"ology":2089,"ashington":2090,"til":2091,"wit":2092,"Ġes":2093,"Ġexpl":2094,").":2095,"amanites":2096,"ĠCol":2097,"businesswire":2098,"37":2099,"20180":2100,"him":2101,"Ġoffer":2102,"Ġmod":2103,"Ġfre":2104,"ently":2105,"ĠKore":2106,"ĠHouse":2107,"Ġeverything":2108,"orld":2109,"Ġsystem":2110,"Ġbott":2111,"ony":2112,"Ġdied":2113,"minem":2114,"ken":2115,"Ġest":2116,"Ġnone":2117,"ably":2118,"Ġoper":2119,"Ġturned":2120,"ĠĠĠ":2121,"Re":2122,"Ġbook":2123,"Ġcop":2124,"ĠCl":2125,"Ġsoon":2126,"ĠAlice":2127,"Man":2128,"yle":2129,"Ġfun":2130,"See":2131,"ince":2132,"Ġquest":2133,"Ġplease":2134,"Ġread":2135,"Ġseek":2136,"Ġcor":2137,"ille":2138,"ustom":2139,"?\"":2140,"Ġten":2141,"Ġfil":2142,"Ġhell":2143,"ĠJose":2144,"Ġprep":2145,"imin":2146,"Ġslow":2147,"Ġce":2148,"Ġkings":2149,"ĠHow":2150,"ider":2151,"ĠSh":2152,"Ġrighteous":2153,"Ġdirect":2154,"Ġrapp":2155,"IS":2156,"ism":2157,"Ġdoing":2158,"Ġdist":2159,"ights":2160,"itting":2161,"Ġground":2162,"Ġris":2163,"ĠDon":2164,"Ġtrue":2165,"ption":2166,"Ġdepart":2167,"Ġed":2168,"Ġred":2169,"Ġwhose":2170,"Ġmaking":2171,"Ġiss":2172,"Why":2173,"atur":2174,"Ġbecome":2175,"where":2176,"Ġfield":2177,"ĠStates":2178,"ator":2179,"Ġvisit":2180,"zz":2181,"ris":2182,"Ġav":2183,"Ġgames":2184,"Ġhum":2185,"resh":2186,"sc":2187,"ided":2188,"Ġacross":2189,"oes":2190,"Ġve":2191,"hem":2192,"ĠMic":2193,"there":2194,"Ġenem":2195,"Ġarm":2196,"Where":2197,"aring":2198,"Ġstreets":2199,"ession":2200,"Ġless":2201,"ĠEminem":2202,"ley":2203,"ĠTherefore":2204,"Im":2205,"TER":2206,"utes":2207,"ror":2208,"Ġalone":2209,"Ġfucking":2210,"ĠWhite":2211,"Ġdro":2212,"ster":2213,"ĠMay":2214,"ĠThou":2215,"ĠAd":2216,"Ġcontro":2217,"ĠRepublic":2218,"Ġprison":2219,"Ġdata":2220,"gress":2221,"ten":2222,"Ġmatter":2223,"UR":2224,"ball":2225,"Ġfif":2226,"Ġdiv":2227,"Ġvict":2228,"Ġsick":2229,"idge":2230,"ĠAt":2231,"Ġbread":2232,"Ġremember":2233,"cerning":2234,"came":2235,"owed":2236,"Ġviol":2237,"ĠAng":2238,"Ġbegin":2239,"40":2240,"Ġhop":2241,"amb":2242,"ĠCity":2243,"Ġresp":2244,"ipe":2245,"ued":2246,"Ġgang":2247,"Ġstren":2248,"Ġ200":2249,"soci":2250,"Ġroom":2251,"mbers":2252,";-":2253,"Ġcold":2254,"ams":2255,"Ġmusic":2256,"wered":2257,"which":2258,"ingly":2259,"Ġalong":2260,"Bl":2261,"ago":2262,"Ġdevelop":2263,"clr":2264,"ape":2265,"Ġmad":2266,"Ġsword":2267,"pin":2268,"aper":2269,"Ġannoun":2270,"ĠX":2271,"Ġcreat":2272,"Ġcried":2273,"Ġcomes":2274,"anger":2275,"Ġproduct":2276,"Ġdifferent":2277,"Ġmess":2278,"Ġfac":2279,"Ġcrack":2280,"ajor":2281,"Ġliving":2282,"Ġmyself":2283,"Ġmanag":2284,"Ġsat":2285,"ĠPro":2286,"Ġtruth":2287,"Ġcrew":2288,"ĠCan":2289,"iving":2290,"key":2291,"Or":2292,"50":2293,"ift":2294,"ourn":2295,"Ġinte":2296,"ĠAmerican":2297,"Ġeas":2298,"!\"":2299,"ray":2300,"Ġinj":2301,"ify":2302,"ey":2303,"Ġdecl":2304,"Ġholy":2305,"Ġauthor":2306,"Ġaw":2307,"Ġcorn":2308,"Ġstood":2309,"Ġcities":2310,"ĠQue":2311,".,":2312,"Ġspirit":2313,"Ġdeliver":2314,"Ġmic":2315,"Ġsell":2316,"ĠJay":2317,"line":2318,"ĠLil":2319,"Ġcrazy":2320,"ĠMc":2321,"ĠLamanites":2322,"une":2323,"Ġtouch":2324,"Ġgod":2325,"Ġjob":2326,"app":2327,"Ġcover":2328,"Ġpar":2329,"Ġdick":2330,"Ġlie":2331,"ĠWashington":2332,"Ġcommanded":2333,"Ġinvestig":2334,"38":2335,"Ġ.":2336,"Ġcatch":2337,"ĠLet":2338,"Ġclean":2339,"Ġlater":2340,"iron":2341,"Ġpat":2342,"Ġrev":2343,"Ġdrug":2344,"Ġjudge":2345,"God":2346,"gin":2347,"Ġsqu":2348,"Ġfeat":2349,"rook":2350,"ert":2351,"erness":2352,"Ġgettin":2353,"orrow":2354,"Ġhey":2355,"ĠCon":2356,"Ġseed":2357,"Ġpost":2358,"iff":2359,"unch":2360,"Ġattack":2361,"sec":2362,"Ġdog":2363,"wan":2364,"Ġlate":2365,"ayne":2366,"ĠMr":2367,"Ġmonths":2368,"ĠNephi":2369,"Ġgoes":2370,"Ġinformation":2371,"Ġcertain":2372,"Ġwithin":2373,"ĠState":2374,"rn":2375,"sp":2376,"hel":2377,"lect":2378,"Ġreb":2379,"Well":2380,"Ġsecurity":2381,"Ġmain":2382,"Ġlab":2383,"Ġnice":2384,"ĠPeter":2385,"itude":2386,"Ġcre":2387,"Ġhon":2388,"Ġsmoke":2389,"Cl":2390,"bb":2391,"oose":2392,"Ġanal":2393,"Ġjudg":2394,"Ġlift":2395,"resent":2396,"chan":2397,"erve":2398,"str":2399,"Ġstar":2400,"conom":2401,"Nigga":2402,"Ġfriends":2403,"ead":2404,"int":2405,"Ġ29":2406,"Ġcompanies":2407,"Ġanswered":2408,"44":2409,"Ġpos":2410,"Ġdamn":2411,"ĠMy":2412,"Ġ23":2413,"au":2414,"Ġcustom":2415,"Ġeye":2416,"Ġwee":2417,"Ġ27":2418,"Ġmoment":2419,"Ġtill":2420,"Ġsight":2421,"Ġbed":2422,"Ġdet":2423,"ĠLou":2424,"ploy":2425,"Ġfut":2426,"ĠWhen":2427,"ubb":2428,"ffic":2429,"ville":2430,"Ġwish":2431,"ĠBar":2432,"Ġ21":2433,"Ġfool":2434,"ole":2435,"ined":2436,"Ġabove":2437,"bur":2438,"Ġpie":2439,"Niggas":2440,"NE":2441,"aim":2442,"wer":2443,"Ġrese":2444,"Your":2445,"enn":2446,"Ġreign":2447,"Ġleast":2448,"Ġflesh":2449,"ĠAngel":2450,"Ha":2451,"Ġfoot":2452,"Ġgat":2453,"Ġsy":2454,"Ġeverybody":2455,"ruit":2456,"CE":2457,"Ġda":2458,"Ġdwell":2459,"ĠFather":2460,"Ġappro":2461,"Ġhttps":2462,"acob":2463,"Ġpot":2464,"Ġdoll":2465,"Ġcommun":2466,"Ġspoken":2467,"EY":2468,"Ġsum":2469,"Ġbattle":2470,"Ġproble":2471,"IT":2472,"hh":2473,"Ġrather":2474,"Ġtreat":2475,"Ġsim":2476,"urope":2477,"Ġfat":2478,"addy":2479,"Ġconcerning":2480,"ĠEx":2481,"Ġwritten":2482,"Ġtown":2483,"Ġkids":2484,"Pl":2485,"Ġforward":2486,"Ġbuy":2487,"ĠKan":2488,"Ġkey":2489,"From":2490,"aut":2491,"Ġhist":2492,"ĠWayne":2493,"Ġtryna":2494,"Ġfle":2495,"Ġelect":2496,"ners":2497,"ĠWorld":2498,"dle":2499,"ases":2500,"their":2501,"Ġpolit":2502,"Ġpoor":2503,"ĠSu":2504,"emocr":2505,"ully":2506,"Ġkingdom":2507,"Ġremain":2508,"Ġofficials":2509,"Ġcost":2510,"ĠTai":2511,"iting":2512,"icago":2513,"ota":2514,"Ġrid":2515,"Ġshut":2516,"avy":2517,"Ġboys":2518,"Ġinside":2519,"rif":2520,"ĠPe":2521,"abl":2522,"Ġkept":2523,"Ġintern":2524,"Ġinn":2525,"Ġnation":2526,"Ġhust":2527,"Ġquarter":2528,"Ġden":2529,"Ġconc":2530,"ĠKing":2531,"Ġtwenty":2532,"Come":2533,"Ġfig":2534,"ically":2535,"igr":2536,"irt":2537,"Ġ26":2538,"Ġproject":2539,"Ġspot":2540,"Ġlarge":2541,"Ġsuck":2542,"ĠCap":2543,"Go":2544,"Part":2545,"huh":2546,"ule":2547,"Ġled":2548,"osp":2549,"Ġlooked":2550,"ĠTo":2551,"Ġmembers":2552,"Do":2553,"eep":2554,"ping":2555,"hered":2556,"omb":2557,"Ġmilit":2558,"ĠAM":2559,"ederal":2560,"pro":2561,"itted":2562,"ona":2563,"irm":2564,"ĠSyri":2565,"Ġcannot":2566,"Ġtalking":2567,"round":2568,"aced":2569,"ĠUS":2570,"Ġclear":2571,"Ġlisten":2572,"witter":2573,"Ġpen":2574,"Ġreason":2575,"Ġdaughter":2576,"cum":2577,"Ġprogr":2578,"Ġfloor":2579,"Ġsky":2580,"Me":2581,"ĠSc":2582,"Ġcompet":2583,"ample":2584,"but":2585,"ĠInt":2586,"Ġprob":2587,"Ġable":2588,"oston":2589,"Ġaccount":2590,"Ġways":2591,"Ġimm":2592,"Ġorgan":2593,"ĠOr":2594,"Ġcaptain":2595,"At":2596,"ĠCent":2597,"ĠJacob":2598,"Ġrespect":2599,"Ġearly":2600,"Ġeconom":2601,"ĠGl":2602,"Ġstreet":2603,"Ġasked":2604,"Ġcourse":2605,"Ġbust":2606,"Ġmajor":2607,"ocks":2608,"ĠSam":2609,"elf":2610,"Ġsever":2611,"Ġalmost":2612,"ledge":2613,"Ġservant":2614,"htt":2615,"ĠBig":2616,"ĠEurope":2617,"Most":2618,"ĠWill":2619,"ĠComm":2620,"EC":2621,"cast":2622,"Ġcash":2623,"Ġhig":2624,"Ġothers":2625,"Tr":2626,"atest":2627,"Ġjoin":2628,"aves":2629,"Ġtried":2630,"Ġpriest":2631,"Ġvers":2632,"enth":2633,"Ġtrust":2634,"Ġver":2635,"ĠEng":2636,"Ġworks":2637,"Ġtoday":2638,"ĠSen":2639,"Ġ49":2640,"Ġservants":2641,"39":2642,"acle":2643,"An":2644,"host":2645,"etimes":2646,"par":2647,"Ġyes":2648,"Ġfeeling":2649,"Ġreported":2650,"Ġ22":2651,"Ġclot":2652,"avor":2653,"Ġspend":2654,"Ġstarted":2655,"acy":2656,"onight":2657,"Ġheat":2658,"Ġwasn":2659,"ĠJew":2660,"Ġpresent":2661,"Ġborn":2662,"urch":2663,"ĠPol":2664,"Ġlevel":2665,"ccess":2666,"ĠKanye":2667,"was":2668,"room":2669,"ĠPr":2670,"201804":2671,"Ġheld":2672,"ĠHar":2673,"Ġchick":2674,"Ġpret":2675,"ruction":2676,"Ġnothin":2677,"Ġmotherfucker":2678,"Ġtar":2679,"Ġcool":2680,"ĠTech":2681,"Ġclass":2682,"ees":2683,"ety":2684,"uted":2685,"Pro":2686,"Ġorder":2687,"ips":2688,"Ġglory":2689,"bo":2690,"had":2691,"Ġcol":2692,"Ġlim":2693,"Ġscream":2694,"Ġ40":2695,"Ġcrit":2696,"iod":2697,"uct":2698,"Ġbag":2699,"illa":2700,"Ġexec":2701,"iously":2702,"Ġcapt":2703,"Ġmis":2704,"Ġcoup":2705,"iled":2706,"Ġprin":2707,"ances":2708,"ĠAngeles":2709,"Ġmag":2710,"Ġiniqu":2711,"Ġforg":2712,"hers":2713,"tern":2714,"Ġperform":2715,"ussy":2716,"bl":2717,"Ġbreat":2718,"ĠGO":2719,"Ġpriests":2720,"While":2721,"Ġkick":2722,"thy":2723,"cci":2724,"Ġeng":2725,"Ġconsum":2726,"Ġfuture":2727,"Ġcir":2728,"ida":2729,"ighb":2730,"Ġfine":2731,"ston":2732,"Ġago":2733,"Ġ2016":2734,"Ġglobal":2735,"Ġbord":2736,"Ġwilderness":2737,"Put":2738,"oly":2739,"ministr":2740,"ear":2741,"ĠDemocr":2742,"ivered":2743,"Ġseveral":2744,"eed":2745,"Ġnations":2746,"Ġform":2747,"iles":2748,"ference":2749,"ĠThus":2750,"Ġwonder":2751,"king":2752,"ators":2753,"asure":2754,"ĠSon":2755,"Ġcouldn":2756,"Ġmurder":2757,"Ġoffice":2758,"Ġstrength":2759,"iers":2760,"etro":2761,"Ġhair":2762,"amed":2763,"Ġstory":2764,"Ġmakes":2765,"Ġequ":2766,"Ġtrad":2767,"bt":2768,"ality":2769,"Ġer":2770,"Ġbecame":2771,"ĠBusiness":2772,"aving":2773,"itions":2774,"Ġfoc":2775,"Ġnobody":2776,"Ġguess":2777,"Ġble":2778,"ĠAhab":2779,"Ġval":2780,"Ġleader":2781,"Ġtaking":2782,"ĠBoston":2783,"oved":2784,"you":2785,"ĠGo":2786,"olina":2787,"Ġspecial":2788,"overed":2789,"Ġemploy":2790,"kay":2791,"Ġsour":2792,"Ġcross":2793,"ada":2794,"Ġbillion":2795,"Ġfail":2796,"ature":2797,"Ġindustry":2798,"ĠLouis":2799,"ij":2800,"ino":2801,"apt":2802,"Ġleaders":2803,"Ġbroke":2804,"WORD":2805,"Ġtree":2806,"ĠJan":2807,"EYWORD":2808,"45":2809,"Ġgreen":2810,"Ġ28":2811,"Ġdesign":2812,"TR":2813,"Tell":2814,"Ġfur":2815,"ressed":2816,"Ġfood":2817,"Ġelse":2818,"ring":2819,"Ġpush":2820,"Ġhang":2821,"Ġlocal":2822,"Ġinf":2823,"aron":2824,"Ġneck":2825,"Ġwrite":2826,"Ġreceived":2827,"under":2828,"Ġrunning":2829,"Ġevent":2830,"ls":2831,"Ġsus":2832,"ado":2833,"Ġtrou":2834,"hu":2835,"ium":2836,"hale":2837,"iday":2838,"ĠGames":2839,"ĠOn":2840,"Ġservice":2841,"Ġtechnology":2842,"Ġmanner":2843,"Ġchance":2844,"fully":2845,"orida":2846,"Ġdig":2847,"ĠSan":2848,"ortun":2849,"gest":2850,"Ġoil":2851,"Ġmeans":2852,"Ġoutside":2853,"Ġprocess":2854,"Fl":2855,"nds":2856,"Ġpack":2857,"oop":2858,"Ġplayed":2859,"Ġnearly":2860,"Ġtab":2861,"ĠGer":2862,"Ġjump":2863,"por":2864,"ĠChina":2865,"utions":2866,"Ġcarry":2867,"ĠPl":2868,"akers":2869,"Ġrepresent":2870,"Ġlaid":2871,"ĠDr":2872,"ĠOne":2873,"Ġwaters":2874,"Ġbuilt":2875,"41":2876,"hia":2877,"Ġmedia":2878,"Ġfruit":2879,"Ġbeast":2880,"ols":2881,"Ġchamp":2882,"ĠIsland":2883,"Ġinterest":2884,"SE":2885,"aff":2886,"Ġmem":2887,"arent":2888,"Ġhearts":2889,"ĠAust":2890,"ands":2891,"iful":2892,"Ġyourself":2893,"Ġlock":2894,"Not":2895,"light":2896,"have":2897,"Ġexceed":2898,"Ġsuper":2899,"egas":2900,"Ġtax":2901,"Ġsoft":2902,"Ġexpected":2903,"Never":2904,"port":2905,"raid":2906,"Take":2907,"tar":2908,"Ġtonight":2909,"anct":2910,"elp":2911,"ords":2912,"ĠYea":2913,"ersey":2914,"Ain":2915,"IR":2916,"Ġz":2917,"Ġprophe":2918,"Ġdraw":2919,"Ġnine":2920,"ĠJust":2921,"bit":2922,"ached":2923,"Ġalleg":2924,"ĠWherefore":2925,"Ġtype":2926,"Ġant":2927,"Ġbigg":2928,"ĠSol":2929,"ĠWho":2930,"ode":2931,"Ġneighb":2932,"Ġpassed":2933,"what":2934,"aled":2935,"idence":2936,"ĠMo":2937,"ission":2938,"ĠLev":2939,"42":2940,"rain":2941,"ract":2942,"tle":2943,"ery":2944,"oman":2945,"Ġtrain":2946,"Ġenter":2947,"Ġresearch":2948,"athan":2949,"ari":2950,"Ġord":2951,"Partly":2952,"Ġcouple":2953,"lyn":2954,"Ġworking":2955,"Ġadded":2956,"Ġstyle":2957,"Ġdefe":2958,"wards":2959,"Ġbroken":2960,"hael":2961,"Ġcand":2962,"ĠCor":2963,"Ġimport":2964,"Ġpriv":2965,"Ġdrive":2966,"from":2967,"ended":2968,"innes":2969,"icy":2970,"riz":2971,"Ġplayers":2972,"Ġwitness":2973,"43":2974,"Ġsac":2975,"Ġmot":2976,"ĠPaul":2977,"venant":2978,"Ġones":2979,"Ex":2980,"alm":2981,"ĠWire":2982,"Ġsuccess":2983,"Ġbrain":2984,"Ġseemed":2985,"Ġbill":2986,"artment":2987,"Ġrepent":2988,"Ġmidst":2989,"Ġpaper":2990,"Ġweed":2991,"ĠDep":2992,"Ġview":2993,"duced":2994,"ursday":2995,"Ġben":2996,"ĠCo":2997,"flict":2998,"etroit":2999,"ories":3000,"ising":3001,"Ġnational":3002,"Ġreach":3003,"ades":3004,"ctor":3005,"Ġadministr":3006,"Ġanything":3007,"Ġcharac":3008,"Ġannounced":3009,"46":3010,"ware":3011,"Ġbus":3012,"Ġfresh":3013,"Ġwanted":3014,"Ġcountries":3015,"ĠRussia":3016,"ĠTur":3017,"ounds":3018,"Ġdelivered":3019,"Ġwake":3020,"Ġhor":3021,"fact":3022,"mm":3023,"Ġbow":3024,"illy":3025,"ĠJo":3026,"Ġrose":3027,"Ġfinal":3028,"Ġquestion":3029,"Ġenemies":3030,"back":3031,"Ġcaught":3032,"Ġtrack":3033,"Ġbroad":3034,"Ġesc":3035,"Ġmighty":3036,"Ġdevil":3037,"ĠKorea":3038,"innesota":3039,"da":3040,"ĠSw":3041,"These":3042,"comm":3043,"Ġleading":3044,"Ġmotherfuckin":3045,"Ġserve":3046,"Ġage":3047,"Ġpra":3048,"imb":3049,"ĠJersey":3050,"empt":3051,"Ġjoy":3052,"Ġgoal":3053,"oronto":3054,"ĠSm":3055,"unday":3056,"lon":3057,"ming":3058,"herit":3059,"Ġknock":3060,"Ġgets":3061,"TON":3062,"mes":3063,"reet":3064,"ĠRed":3065,"Ġbuilding":3066,"Ġprobably":3067,"cing":3068,"ament":3069,"lymp":3070,"ization":3071,"ointed":3072,"hites":3073,"ĠNational":3074,"Ġgoin":3075,"Ġplaces":3076,"ĠAssoci":3077,"Ġhistory":3078,"Ġport":3079,"Ġpict":3080,"Ġgri":3081,"Ġnet":3082,"ĠCam":3083,"Ġshooting":3084,"Ġhurt":3085,"ĠTaiwan":3086,"Ġut":3087,"ĠSaul":3088,"ĠBaby":3089,"ampaign":3090,"Ġcontrol":3091,"48":3092,"inger":3093,"Ġdam":3094,"Ġblue":3095,"Ġ31":3096,"medi":3097,"ĠCalif":3098,"ĠDonald":3099,"Ġavail":3100,"Ġ*":3101,"itive":3102,"llen":3103,"will":3104,"work":3105,"Ġenc":3106,"Ġchurch":3107,"book":3108,"nin":3109,"su":3110,"Ġpussy":3111,"ĠAaron":3112,"hern":3113,"ĠEd":3114,"Ġsweet":3115,"Ġstatement":3116,"Ġsingle":3117,"ĠAfric":3118,"Yes":3119,"lim":3120,"Ġoften":3121,"Ġfamil":3122,"Sp":3123,"sy":3124,"stit":3125,"aked":3126,"Ġhours":3127,"adelp":3128,"oso":3129,"Ġknowledge":3130,"Ġwrote":3131,"Ġsilver":3132,"Keep":3133,"New":3134,"Try":3135,"Ġbase":3136,"Ġmass":3137,"Ġperiod":3138,"adelphia":3139,"ran":3140,"Ġgar":3141,"lex":3142,"Mostly":3143,"IL":3144,"Wh":3145,"che":3146,"house":3147,"Ġwood":3148,"ico":3149,"Ġhappen":3150,"Ġdouble":3151,"Ġjudgment":3152,"Af":3153,"yo":3154,"Ġpo":3155,"Ġpick":3156,"Ġstick":3157,"Ġproper":3158,"Ġspit":3159,"izz":3160,"face":3161,"Ġsanct":3162,"any":3163,"Ġthug":3164,"Ġpartic":3165,"Ġclothes":3166,"ED":3167,"Ġran":3168,"Ġrich":3169,"ĠDo":3170,"ĠDan":3171,"ĠOlymp":3172,"ĠKim":3173,"Bridge":3174,"Ġfeatures":3175,"LORD":3176,"Ġban":3177,"Ġcampaign":3178,"Ġdance":3179,"Ġhy":3180,"ĠBay":3181,"like":3182,"lier":3183,"ĠMC":3184,"Ġplaying":3185,"ĠAmerica":3186,"ffect":3187,"Ġocc":3188,"ĠPar":3189,"Ġcometh":3190,"ittin":3191,"Ġscored":3192,"Ġgangst":3193,"Ġ...":3194,"Ġahead":3195,"Ġthreat":3196,"ivity":3197,"Ġfollowed":3198,"iversity":3199,"Ġtight":3200,"Ġbes":3201,"Ġvide":3202,"Ġroad":3203,"Ġsecret":3204,"Ġminutes":3205,"ique":3206,"regation":3207,"Ġgathered":3208,"Baby":3209,"iding":3210,"Ġshots":3211,"Ġcoach":3212,"Ġinvol":3213,"uly":3214,"Ġloss":3215,"Ġalive":3216,"Ġ2017":3217,"hetto":3218,"Ġmilitary":3219,"rough":3220,"Ġbra":3221,"Ġgas":3222,"ĠJon":3223,"ulf":3224,"angers":3225,"Ġmercy":3226,"Ġprogram":3227,"iter":3228,"Ġeff":3229,"akes":3230,"Ġboat":3231,"Ġmotherfuckers":3232,"rr":3233,"ays":3234,"Ġbeaut":3235,"Ġrele":3236,"Ġshew":3237,"Ġfederal":3238,"Ġshar":3239,"Ġyell":3240,"ults":3241,"ails":3242,"Ġlearn":3243,"Ġprotect":3244,"More":3245,"down":3246,"eal":3247,"Ġeffect":3248,"ĠMin":3249,"Ġthinking":3250,"ancial":3251,"Ġ04":3252,"Ġfilled":3253,"Ġpit":3254,"Ġpaid":3255,"Ġbear":3256,"tered":3257,"Ġdiscip":3258,"BA":3259,"nect":3260,"Ġcharge":3261,"Ġfollowing":3262,"ĠCarolina":3263,"Ġrhyme":3264,"Sun":3265,"fer":3266,"Ġwise":3267,"amin":3268,"Ġaff":3269,"Ġheads":3270,"Ġcovenant":3271,"Ġgrowth":3272,"iamond":3273,"Bitch":3274,"ipped":3275,"mit":3276,"edia":3277,"utive":3278,"Ġrise":3279,"Ġlose":3280,"Ġice":3281,"ĠPress":3282,"ĠAP":3283,"Ġweap":3284,"Ġarrest":3285,"Ġteach":3286,"Ġreports":3287,"Ġopportun":3288,"oring":3289,"Ġsepar":3290,"rab":3291,"Ġtalkin":3292,"Ġcurrent":3293,"night":3294,"ional":3295,"Ġcomplet":3296,"Ġreceive":3297,"Ġident":3298,"Ġheavy":3299,"ĠMark":3300,"ault":3301,"ban":3302,"Ġcoun":3303,"ĠGe":3304,"Ġsuff":3305,"ittee":3306,"Ġburnt":3307,"47":3308,"Ġself":3309,"Ġlad":3310,"ali":3311,"Ġrej":3312,"ĠChar":3313,"ĠBo":3314,"allas":3315,"ĠPha":3316,"people":3317,"ĠThese":3318,"ogn":3319,"Here":3320,"Ġfourth":3321,"kes":3322,"uary":3323,"orado":3324,"53":3325,"ien":3326,"yn":3327,"Ġwine":3328,"Ġforget":3329,"ĠCup":3330,"osing":3331,"Ġversion":3332,"ober":3333,"Ġsouth":3334,"owd":3335,"aying":3336,"ential":3337,"rap":3338,"Ġperfect":3339,"Ġphone":3340,"Ġfurther":3341,"tr":3342,"Ġhip":3343,"ĠLu":3344,"Ġfair":3345,"Ġanswer":3346,"Ġpossible":3347,"Ġiniquity":3348,"fort":3349,"Ġdope":3350,"Ġchain":3351,"Ġsmok":3352,"Ġreturned":3353,"Make":3354,"no":3355,"ĠJap":3356,"Ġaltar":3357,"Ġafraid":3358,"Ġnorth":3359,"ĠJews":3360,"Ġsen":3361,"Ġmir":3362,"Ġmatch":3363,"ĠCong":3364,"rench":3365,"Ġchallen":3366,"Ġrecent":3367,"ĠInc":3368,"Ġforever":3369,"Ġinherit":3370,"Ġ100":3371,"Ġboard":3372,"exas":3373,"ĠGerman":3374,"uge":3375,"again":3376,"were":3377,"Ġlookin":3378,"Ġ72":3379,"Still":3380,"ias":3381,"ara":3382,"Ġmeat":3383,"this":3384,"Ġbox":3385,"Ġavailable":3386,"About":3387,"May":3388,"eng":3389,"ĠDog":3390,"istan":3391,"Ġspace":3392,"Rep":3393,"look":3394,"Ġwis":3395,"Ġmat":3396,"reak":3397,"Ġbank":3398,"ental":3399,"ĠSpe":3400,"Ġlights":3401,"ACT":3402,"rizona":3403,"Ġfelt":3404,"ĠSunday":3405,"Ġfucked":3406,"ensive":3407,"Ġcontinue":3408,"Ġeasy":3409,"EL":3410,"Ġsnow":3411,"Ġfund":3412,"ĠHis":3413,"ordan":3414,"Ġ32":3415,"ornia":3416,"Ġsacrif":3417,"equ":3418,"Ġsearch":3419,"Ġimmedi":3420,"Ġimpro":3421,"cies":3422,"Ġide":3423,"Ġbomb":3424,"acc":3425,"ops":3426,"ĠNe":3427,"Ġadministration":3428,"80":3429,"ially":3430,"rs":3431,"storm":3432,"Ġexcept":3433,"Ġslain":3434,"Ġraised":3435,"Ġseems":3436,"Ġhuman":3437,"Ġhuh":3438,"ESS":3439,"ĠYoung":3440,"lo":3441,"Ġbird":3442,"ĠSec":3443,"Ġpract":3444,"Ġdoesn":3445,"Ġcaused":3446,"Le":3447,"iant":3448,"Ġsev":3449,"ĠWith":3450,"ĠDre":3451,"ateg":3452,"Ġusing":3453,"Ġ48":3454,"Ġenv":3455,"Ġthroughout":3456,"Ġservices":3457,"55":3458,"Ġbond":3459,"Ġlives":3460,"Ġshare":3461,"Ġdesp":3462,"Ġappear":3463,"Ġwear":3464,"Ġanger":3465,"theless":3466,"ĠChicago":3467,"II":3468,"Ġboo":3469,"Ġlaug":3470,"udden":3471,"Ġneeds":3472,"do":3473,"aly":3474,"ĠNot":3475,"Ġsayin":3476,"ellig":3477,"Ġsurv":3478,"Ġdaughters":3479,"Ġgate":3480,"ĠOb":3481,"Ġmeeting":3482,"OM":3483,"sbur":3484,"ĠAnt":3485,"Ġemer":3486,"ĠDetroit":3487,"endy":3488,"Ġhomie":3489,"Ġproducts":3490,"Even":3491,"eel":3492,"real":3493,"Ġshake":3494,"Ġtruck":3495,"Ġsins":3496,"Gu":3497,"Ġinfl":3498,"ability":3499,"nav":3500,"Ġweeks":3501,"Ġborder":3502,"pter":3503,"Ġtong":3504,"Ġprophets":3505,"60":3506,"lish":3507,"irgin":3508,"Ġblind":3509,"Ġgrand":3510,"ĠMichael":3511,"Ġfocus":3512,"Ġagre":3513,"Ġfavor":3514,"ises":3515,"Ġdarkness":3516,"ĠSuper":3517,"ourt":3518,"Ġsomebody":3519,"Ġsource":3520,"ires":3521,"ufact":3522,"Ġlady":3523,"Ġquite":3524,"ernacle":3525,"ĠGucci":3526,"Ġbeginning":3527,"Ġconcern":3528,"lant":3529,"Ġbare":3530,"Ġghetto":3531,"ĠPat":3532,"ements":3533,"aker":3534,"iggie":3535,"Ġangel":3536,"Ġpretty":3537,"49":3538,"HAP":3539,"spe":3540,"ounded":3541,"Ġspread":3542,"Ġuncle":3543,"Ġrepl":3544,"Ġcrowd":3545,"Ġwindow":3546,"Ġblessed":3547,"vest":3548,"reme":3549,"Ġwhatever":3550,"Ġexc":3551,"Ġopened":3552,"Ġrighteousness":3553,"HAPTER":3554,"ĠMarch":3555,"ittsbur":3556,"Ġlonger":3557,"ĠSpirit":3558,"habit":3559,"Sha":3560,"een":3561,"then":3562,"ĠIll":3563,"aded":3564,"aint":3565,"Ġaccess":3566,"Ġcareer":3567,"Ġtravel":3568,"Ġtrees":3569,"Ġestabl":3570,"ĠJapan":3571,"ittsburgh":3572,"wise":3573,"Ġbas":3574,"Ġly":3575,"ĠJos":3576,"pty":3577,"Ġhappened":3578,"bel":3579,"pass":3580,"Ġcam":3581,"Ġeither":3582,"Ġcong":3583,"Ġcolle":3584,"Ġincrease":3585,"Ġsummer":3586,"56":3587,"Pac":3588,"based":3589,"atin":3590,"Ġshine":3591,"Ġcomb":3592,"Ġplayer":3593,"Ġraise":3594,"cially":3595,"Israel":3596,"iel":3597,"Ġhide":3598,"Ġ2015":3599,"Ġdecision":3600,"Ġhigher":3601,"Ġimportant":3602,"Ayy":3603,"ients":3604,"hest":3605,"alo":3606,"ĠLa":3607,"ribe":3608,"Ġwouldn":3609,"Ġprec":3610,"Ġinternational":3611,"hood":3612,"ĠHoly":3613,"Cop":3614,"ĠAg":3615,"ĠApp":3616,"Ġcontrib":3617,"Ġinterv":3618,"Ġdiscuss":3619,"ASH":3620,"ĠRepublican":3621,"TA":3622,"band":3623,"friend":3624,"ĠTexas":3625,"Ġkiss":3626,"Ġlikely":3627,"pping":3628,"Ġspeed":3629,"rupt":3630,"Ġseries":3631,"Ġswear":3632,"INGTON":3633,"Ooh":3634,"ox":3635,"heim":3636,"hand":3637,"Ġbud":3638,"edic":3639,"ĠDJ":3640,"Ġtryin":3641,"boy":3642,"Ġstore":3643,"ĠTwitter":3644,"ĠNas":3645,"Ġ199":3646,"ĠNephites":3647,"Ġexperience":3648,"Ġcorner":3649,"ĠDepartment":3650,"ĠCalifornia":3651,"Ġhol":3652,"Ġsafe":3653,"Ġblast":3654,"Ġcarried":3655,"Ġdoubt":3656,"ĠColumb":3657,"ospital":3658,"70":3659,"Ph":3660,"Ġboss":3661,"ĠLos":3662,"Ġseat":3663,"Ġshop":3664,"Ġcomin":3665,"thee":3666,"Ġfeed":3667,"Ġ+":3668,"Ġhid":3669,"ĠMinnesota":3670,"Ġchanged":3671,"ĠLeague":3672,"Ġstanding":3673,"ĠAustral":3674,"ky":3675,"lam":3676,"Ġskin":3677,"shine":3678,"OL":3679,"Ġcred":3680,"isc":3681,"arm":3682,"omon":3683,"Ġhus":3684,"Ġbeef":3685,"Ġhosts":3686,"ship":3687,"haha":3688,"Ġrate":3689,"thou":3690,"ĠJordan":3691,"Ġclaim":3692,"upon":3693,"ĠThursday":3694,"Ġminute":3695,"Ġdreams":3696,"EO":3697,"vation":3698,"yard":3699,"Ġtit":3700,"Ġsort":3701,"Ġnames":3702,"Ġthirty":3703,"ĠKen":3704,"bered":3705,"Ġprovide":3706,"Ġimmigr":3707,"51":3708,"SW":3709,"more":3710,"Ġlower":3711,"Ġrace":3712,"iling":3713,"ĠHer":3714,"ĠFed":3715,"ppin":3716,"Ġvideo":3717,"Ġsought":3718,"Ġweak":3719,"Ġglad":3720,"Ġmiddle":3721,"kin":3722,"sed":3723,"rel":3724,"Ġcars":3725,"Ġfish":3726,"Ġdirty":3727,"Ġlivin":3728,"ĠBy":3729,"raham":3730,"antly":3731,"Ġattempt":3732,"Ġguns":3733,"ĠJoseph":3734,"oid":3735,"Ġwide":3736,"verage":3737,"ĠHam":3738,"Ġwants":3739,"Ġinclude":3740,"Ġcommandments":3741,"After":3742,"ĠCongress":3743,"Sc":3744,"Ġpurs":3745,"ĠWhy":3746,"Ġplans":3747,"eezy":3748,"Say":3749,"ere":3750,"Ġbought":3751,"Ġpimp":3752,"ION":3753,"hic":3754,"ka":3755,"Ġbout":3756,"Ġeast":3757,"soever":3758,"Ġsomethin":3759,"Ġmultip":3760,"Ġring":3761,"ĠMe":3762,"ĠFrance":3763,"cel":3764,"dd":3765,"Ġbuck":3766,"Ġdoth":3767,"elve":3768,"Ġallow":3769,"ĠJack":3770,"Ġdoin":3771,"Ġarmy":3772,"Ġsomeone":3773,"Ġstret":3774,"Because":3775,"Ġwisdom":3776,"Sm":3777,"cul":3778,"Ġfirm":3779,"ĠTV":3780,"Ġchill":3781,"Ġparts":3782,"Ġglass":3783,"hah":3784,"Ġmix":3785,"essel":3786,"Ġstars":3787,"raoh":3788,"angu":3789,"Ġsmell":3790,"Ġprophet":3791,"ĠQu":3792,"ĠBlack":3793,"ĠRussian":3794,"Ġcongregation":3795,"who":3796,"Ġmo":3797,"Ġdough":3798,"Ġhous":3799,"Ġlawy":3800,"Ġaddition":3801,"Ġmultitude":3802,"Ġpolitical":3803,"Ġcharacter":3804,"Ġcamp":3805,"etter":3806,"Ġshower":3807,"Ġ33":3808,"Ġdestroyed":3809,"Ġbreath":3810,"Lord":3811,"zer":3812,"ĠCount":3813,"Ġmans":3814,"Ġdisp":3815,"Ġcustomers":3816,"ASHINGTON":3817,"Ġaction":3818,"ĠArizona":3819,"road":3820,"Ġlips":3821,"ĠMal":3822,"ught":3823,"Ġscr":3824,"Ġrights":3825,"atural":3826,"52":3827,"nding":3828,"Ġmama":3829,"Ġfit":3830,"Ġjail":3831,"Ġarea":3832,"Ġvot":3833,"ĠOT":3834,"Ġcoast":3835,"orney":3836,"Ġrecogn":3837,"Ġcapital":3838,"Ġpossess":3839,"ĠWilliam":3840,"hop":3841,"po":3842,"isl":3843,"igin":3844,"ĠMike":3845,"anted":3846,"Ġspl":3847,"Ġaddress":3848,"ĠAmmon":3849,"Ġmoved":3850,"aturday":3851,"Ġtour":3852,"oura":3853,"Ġpun":3854,"ales":3855,"Ġrob":3856,"ĠStar":3857,"Ġdrunk":3858,"inese":3859,"Ġsometimes":3860,"Ġsales":3861,"Ġbottom":3862,"Che":3863,"Com":3864,"Ġdiamond":3865,"Ġtot":3866,"Ġloud":3867,"Ġnamed":3868,"ushed":3869,"ĠMa":3870,"ils":3871,"ĠWendy":3872,"Ġworth":3873,"Ġdesc":3874,"change":3875,"Ġproblem":3876,"rees":3877,"Ġpock":3878,"iring":3879,"Ġkilling":3880,"Ġwhales":3881,"Ġgeneral":3882,"Ġissue":3883,"Ġinvestigation":3884,"Ġbang":3885,"oto":3886,"ĠBuff":3887,"Ġneg":3888,"Ġmanufact":3889,"Ġvessel":3890,"Ġfinancial":3891,"Ġteams":3892,"Ġinstead":3893,"66":3894,"Col":3895,"Ġarg":3896,"Ġauthorities":3897,"OT":3898,"Ġobs":3899,"Ġgather":3900,"Ġsocial":3901,"ĠOf":3902,"upid":3903,"aze":3904,"Everybody":3905,"Ġprepared":3906,"Ġ37":3907,"Ġarms":3908,"Ġgrind":3909,"Ġdesire":3910,"Ġdemand":3911,"Ġtrouble":3912,"Ġtabernacle":3913,"ĠSolomon":3914,"Ġfamilies":3915,"SO":3916,"iar":3917,"yond":3918,"Ġiron":3919,"Ġbased":3920,"alt":3921,"Ġur":3922,"ĠJune":3923,"ĠOh":3924,"rooklyn":3925,"Ġgangsta":3926,"BC":3927,"Ġmist":3928,"Ġshad":3929,"Ġtrib":3930,"57":3931,"field":3932,"makers":3933,"uz":3934,"haps":3935,"Ġpark":3936,"Ġreve":3937,"ĠSa":3938,"ĠBoy":3939,"Ġsug":3940,"awa":3941,"Ġfinished":3942,"Ġspokes":3943,"Ġpurp":3944,"ĠGOD":3945,"59":3946,"Ġclos":3947,"ĠBrit":3948,"WASHINGTON":3949,"org":3950,"Ġnut":3951,"Ġriver":3952,"ĠJoe":3953,"ieve":3954,"Ġmaybe":3955,"Ġlaugh":3956,"Am":3957,"oom":3958,"yright":3959,"asing":3960,"ĠNick":3961,"Ġvine":3962,"Ġstrange":3963,"Ġmoving":3964,"Ġdollar":3965,"ĠIslanders":3966,"Ġcub":3967,"Ġdue":3968,"Ġpros":3969,"ashville":3970,"ancou":3971,"Ġdestruction":3972,"ĠFriday":3973,"Ġdisciples":3974,"AD":3975,"Ġfans":3976,"alled":3977,"Ġconv":3978,"Ġfled":3979,"Its":3980,"Ġchair":3981,"Ġslay":3982,"Ġtrip":3983,"Ġterror":3984,"Ġvehic":3985,"Ġviolence":3986,"elligence":3987,"ancouver":3988,"Of":3989,"Ġcock":3990,"Ġitself":3991,"ĠMex":3992,"cell":3993,"ĠPer":3994,"ĠRock":3995,"Ġwarm":3996,"cil":3997,"sha":3998,"Ġmill":3999,"Ġfaces":4000,"anch":4001,"Ġgiving":4002,"irth":4003,"Ġtrade":4004,"ĠUN":4005,"Ġearlier":4006,"Inter":4007,"Ġrules":4008,"ĠQueen":4009,"Ġexceedingly":4010,"Ġpicture":4011,"Ġcomplete":4012,"ĠDogg":4013,"Som":4014,"Ġparent":4015,"Ġdeter":4016,"Ġdanger":4017,"roll":4018,"Ġweight":4019,"alley":4020,"osen":4021,"Ġafflict":4022,"Ġarri":4023,"ival":4024,"Ġscene":4025,"Ġstrugg":4026,"anced":4027,"Shit":4028,"Ġlifted":4029,"Ġcat":4030,"Ġlest":4031,"Ġlord":4032,"Ġnon":4033,"aged":4034,"olly":4035,"Ġpartners":4036,"Ġthoughts":4037,"Ġautom":4038,"Ġthousands":4039,"Ġrappers":4040,"ĠSyria":4041,"Ġreleased":4042,"sing":4043,"held":4044,"orious":4045,"Ġlatest":4046,"Ġinit":4047,"child":4048,"Ġdeck":4049,"ĠEn":4050,"ontreal":4051,"Ġpresence":4052,"Ġelection":4053,"Ġpromise":4054,"Give":4055,"ĠMore":4056,"eless":4057,"ĠGhost":4058,"aging":4059,"Ġcompl":4060,"Ġbelieved":4061,"asket":4062,"ĠBabylon":4063,"CON":4064,"Damn":4065,"Ġpub":4066,"Ġeld":4067,"entiles":4068,"ĠMoney":4069,"ĠPac":4070,"ĠPhar":4071,"ORK":4072,"ĠUniversity":4073,"Ġlegal":4074,"Ġoppos":4075,"ĠFlorida":4076,"Ġpiece":4077,"UB":4078,"Young":4079,"Ġ34":4080,"Ġcalling":4081,"Ġconsider":4082,"Se":4083,"Ġtable":4084,"Ġsudden":4085,"rey":4086,"Ġrepe":4087,"Ġsav":4088,"Ġshoes":4089,"Ġvan":4090,"Ġbrand":4091,"Ġscared":4092,"ĠUnion":4093,"Ġsurpr":4094,"secut":4095,"alse":4096,"ĠCourt":4097,"ĠWar":4098,"Ġconnect":4099,"Ġhttp":4100,"NEW":4101,"Ah":4102,"uation":4103,"wide":4104,"ĠSep":4105,"ĠCle":4106,"ume":4107,"Ġspo":4108,"acebook":4109,"Ġflo":4110,"yeah":4111,"icted":4112,"ĠBenj":4113,"ĠSenate":4114,"Ġimmediately":4115,"know":4116,"Ġet":4117,"Ġid":4118,"Ġign":4119,"Ġfix":4120,"ĠFeb":4121,"Ġ51":4122,"ruct":4123,"pril":4124,"Cloud":4125,"ĠPharaoh":4126,"AM":4127,"wood":4128,"inc":4129,"iced":4130,"ĠMer":4131,"ivid":4132,"Ġbelong":4133,"Ġtribe":4134,"uu":4135,"ĠSn":4136,"Ġraw":4137,"Ġseeing":4138,"ĠVegas":4139,"Ġminister":4140,"ISC":4141,"Ġfifty":4142,"http":4143,"osoever":4144,"Ġsuffer":4145,"Back":4146,"mark":4147,"Ġ000":4148,"hal":4149,"ĠCON":4150,"cement":4151,"aine":4152,"ĠJames":4153,"Ġknows":4154,"Ġspoke":4155,"Ġthank":4156,"Ġwherefore":4157,"Ġchest":4158,"Ġdeparted":4159,"Ġsister":4160,"nded":4161,"Ġwilt":4162,"Ġfill":4163,"Ġplain":4164,"ivil":4165,"ĠChinese":4166,"ĠPhiladelphia":4167,"Ġinnov":4168,"how":4169,"iance":4170,"veth":4171,"Ġinhabit":4172,"ett":4173,"Ġheark":4174,"Ġears":4175,"Ġstone":4176,"Ġstaff":4177,"ĠSer":4178,"Ġlil":4179,"erson":4180,"Ġabomin":4181,"ĠBecause":4182,"Ġclouds":4183,"Girl":4184,"she":4185,"Ġyourselves":4186,"Ġ35":4187,"ĠNews":4188,"IND":4189,"ttawa":4190,"ĠBrown":4191,"Ġofferings":4192,"Ġfigure":4193,"AG":4194,"away":4195,"oured":4196,"Ġfulf":4197,"uty":4198,"ĠSaturday":4199,"ilities":4200,"Ġrole":4201,"Ġtwelve":4202,"teen":4203,"2400":4204,"Ġimpact":4205,"Ġaccept":4206,"ronic":4207,"Ġsoldiers":4208,"Ġfifth":4209,"Ġgods":4210,"2018042400":4211,"Ġhusband":4212,"said":4213,"Ġmaster":4214,"Ġstage":4215,"ĠTe":4216,"arden":4217,"Ġmiles":4218,"Ġrecords":4219,"iminal":4220,"ournal":4221,"Ġproblems":4222,"Ġinheritance":4223,"Ġtaught":4224,"Ġcook":4225,"before":4226,"othing":4227,"Ġpolicy":4228,"ĠChapter":4229,"istrict":4230,"ination":4231,"Ġgiv":4232,"ĠDra":4233,"ĠFrench":4234,"istines":4235,"Ġvill":4236,"naheim":4237,"Ġteac":4238,"Ġcommit":4239,"Ġneeded":4240,"Ġvictory":4241,"ĠEuropean":4242,"Ġbenef":4243,"Ġpraise":4244,"Sw":4245,"Ugh":4246,"gary":4247,"mont":4248,"ya":4249,"orters":4250,"Ġdust":4251,"ĠDallas":4252,"Ġconference":4253,"Ġ39":4254,"Ġletter":4255,"Ġspeech":4256,"Ġshows":4257,"Ġsigned":4258,"innipe":4259,"Ġdirector":4260,"ironment":4261,"ĠBuffalo":4262,"innipeg":4263,"ĠChi":4264,"Ġthrone":4265,"Ġattention":4266,"Ġsupposed":4267,"aterial":4268,"ippin":4269,"Ġposition":4270,"ĠAssociated":4271,"OS":4272,"Ġopt":4273,"Ġpump":4274,"Ġlangu":4275,"hath":4276,"ĠCome":4277,"hys":4278,"Ġrunnin":4279,"Ġbegat":4280,"aiah":4281,"ounce":4282,"Ġcenter":4283,"Ġprinces":4284,"ĠColumbus":4285,"'?":4286,"Car":4287,"Right":4288,"Un":4289,"buck":4290,"pes":4291,"Ġcell":4292,"lebr":4293,"ĠBiggie":4294,"ĠPh":4295,"abb":4296,"asting":4297,"Ġtrial":4298,"Ġwalked":4299,"Ġrelations":4300,"ĠAfter":4301,"Ġdropped":4302,"Ġsenior":4303,"Copyright":4304,"lude":4305,"Ġtro":4306,"Ġbod":4307,"Ġholl":4308,"Ġstones":4309,"add":4310,"Ġmeant":4311,"ĠWhale":4312,"ously":4313,"izing":4314,"Ġwrath":4315,"Ġchanges":4316,"aughter":4317,"68":4318,"isions":4319,"Ġdaddy":4320,"Ġbeyond":4321,"raz":4322,"epend":4323,"Ġoffered":4324,"Ġstarting":4325,"Before":4326,"Ġmissing":4327,"Ġgrave":4328,"Ġcy":4329,"Ġdiss":4330,"ĠMac":4331,"ĠMart":4332,"ilar":4333,"Ġcharges":4334,"Ġprivate":4335,"equeg":4336,"Ġtongue":4337,"65":4338,"Run":4339,"serv":4340,"ength":4341,"Ġforce":4342,"Ġstuff":4343,"ĠTom":4344,"Ġrule":4345,"though":4346,"abor":4347,"ĠFin":4348,"ĠEm":4349,"Ġleaving":4350,"udi":4351,"coming":4352,"ĠAlma":4353,"ground":4354,"Ġhappy":4355,"Ġrhymes":4356,"Ġfreak":4357,"Ġdrugs":4358,"Any":4359,"rat":4360,"Ġsense":4361,"imate":4362,"see":4363,"isted":4364,"ĠOpen":4365,"Ġcrime":4366,"tained":4367,"Ġregul":4368,"Ġgrowing":4369,"Ġdwelt":4370,"Ġcreate":4371,"Ġcounsel":4372,"val":4373,"Ġsitting":4374,"Ġband":4375,"ening":4376,"asons":4377,"Ġhospital":4378,"ĠMid":4379,"Ġvol":4380,"Ġorigin":4381,"Ġtele":4382,"iction":4383,"Ġentire":4384,"ĠAbraham":4385,"Ġwickedness":4386,"https":4387,"IRE":4388,"BI":4389,"ented":4390,"cember":4391,"ĠNever":4392,"ourney":4393,"Ġrecently":4394,"Ġsurely":4395,"Ġutter":4396,".)":4397,"BUS":4398,"Call":4399,"Money":4400,"Ġpill":4401,"ĠCEO":4402,"ript":4403,"ĠFacebook":4404,"Ġscore":4405,"Ġapplic":4406,"Ġmarkets":4407,"Ġbeautiful":4408,"John":4409,"Ġ[":4410,"rep":4411,"oups":4412,"Ġcant":4413,"Ġdi":4414,"Ġhook":4415,"Ġhung":4416,"ĠApril":4417,"Ġforty":4418,"Ġmeas":4419,"olate":4420,"Ġemb":4421,"INESS":4422,"ĠShady":4423,"Ġeconomy":4424,"Produced":4425,"Ġperformance":4426,"against":4427,"enced":4428,"Ġstuck":4429,"ooh":4430,"ĠGentiles":4431,"aken":4432,"Ġbright":4433,"Ġsmart":4434,"Ġshowed":4435,"airs":4436,"Ġcreated":4437,"ĠIntern":4438,"ait":4439,"kn":4440,"rell":4441,"agger":4442,"Ġconst":4443,"igga":4444,"Ġherself":4445,"Ġtwice":4446,"Ġprice":4447,"Ġproud":4448,"Ġsched":4449,"Ġcontr":4450,"Ġresults":4451,"play":4452,"Only":4453,"Ġprevious":4454,"oroni":4455,"Ġsexual":4456,"Ġcops":4457,"Ġeduc":4458,"bye":4459,"Ġpred":4460,"ĠPittsburgh":4461,"Ġagency":4462,"ĠYORK":4463,"Ġactiv":4464,"ĠAtlant":4465,"ked":4466,"ann":4467,"Ġoutta":4468,"ĠRese":4469,"Ġspent":4470,"Ġsmote":4471,"Ġcommon":4472,"standing":4473,"Ġtowards":4474,"Ġinterview":4475,")]":4476,"View":4477,"ĠAct":4478,"Ġsaf":4479,"Ġcomfort":4480,"Ġcontent":4481,"Ġhole":4482,"Ġhearing":4483,"Ġtakes":4484,"USTR":4485,"Ġflee":4486,"ĠLevites":4487,"aa":4488,"Ġi":4489,"Ġbapt":4490,"Ġgain":4491,"ĠIran":4492,"ĠAut":4493,"ĠTimes":4494,"ĠSim":4495,"Ġrad":4496,"Ġcomment":4497,"Ġloved":4498,"ĠSte":4499,"ĠStreet":4500,"place":4501,"Ġguard":4502,"Ġsigns":4503,"Ġbusinesses":4504,"Ġpressure":4505,"rink":4506,"ĠAss":4507,"Ġstupid":4508,"rial":4509,"ĠNet":4510,"pecially":4511,"Ġsheep":4512,"Ġholding":4513,"Ġdefense":4514,"Ġforeign":4515,"Ġexpand":4516,"Sunny":4517,"Interlude":4518,"BUSINESS":4519,")--":4520,"58":4521,"NW":4522,"Ġfalse":4523,"Ġgro":4524,"Ġbell":4525,"ĠToronto":4526,"ĠBel":4527,"Ġsaved":4528,"ĠJones":4529,"Ġevening":4530,"Ġhelped":4531,"Ġregion":4532,"--(":4533,"ĠKorean":4534,"Ġrespond":4535,"Ġtarget":4536,"hua":4537,"HE":4538,"PUB":4539,"Two":4540,"ki":4541,"well":4542,"eters":4543,"rose":4544,"ĠWIRE":4545,"ems":4546,"Ġdece":4547,"ĠEast":4548,"Ġevents":4549,"Ġofficers":4550,"Ġquestions":4551,"SOUR":4552,"USTRY":4553,"TACT":4554,"Watch":4555,"lers":4556,"ining":4557,"orry":4558,"Ġforces":4559,"Ġjack":4560,"Ġvote":4561,"Ġvision":4562,"Ġamb":4563,"ĠVirgin":4564,"Ġstatements":4565,"ipping":4566,"Ġmountains":4567,"children":4568,"Big":4569,"DISC":4570,"KEYWORD":4571,"ĠTy":4572,"ĠST":4573,"Ġshout":4574,"Ġjew":4575,"Ġyours":4576,"ĠRes":4577,"ĠKEYWORD":4578,"ĠView":4579,"Ġserved":4580,"should":4581,"Ġbusinesswire":4582,"ĠIndian":4583,"Ġpieces":4584,"Ġdollars":4585,"Ġcommunity":4586,"CONTACT":4587,"INDUSTRY":4588,"SOURCE":4589,"Rem":4590,"Ġmoon":4591,"ĠTim":4592,"ĠMor":4593,"ĠBa":4594,"ĠPark":4595,"ĠNashville":4596,"Ġdoors":4597,"Ġworkers":4598,"Ġrapper":4599,"78":4600,"AY":4601,"IA":4602,"rit":4603,"uke":4604,"your":4605,"ilton":4606,"ively":4607,"Ġlean":4608,"Ġ59":4609,"ĠAmericans":4610,"Ġships":4611,"Ġtemple":4612,"ĠResearch":4613,"father":4614,"Ġokay":4615,"iger":4616,"ĠArab":4617,"Ġvain":4618,"Ġlooks":4619,"ysis":4620,"Ġmountain":4621,"ĠDecember":4622,"ĠCalgary":4623,"Ġenemy":4624,"Black":4625,"Ġladies":4626,"Hold":4627,"Ġaverage":4628,"into":4629,"lem":4630,"ĠLatest":4631,"ĠOct":4632,"Ġtears":4633,"Ġchoose":4634,"Ġquickly":4635,"Ġpotential":4636,"Ġyellow":4637,"By":4638,"Pe":4639,"Ġaim":4640,"Ġfake":4641,"Ġfinger":4642,"Ġnumb":4643,"ĠSant":4644,"ager":4645,"ĠRangers":4646,"Ġgrown":4647,"Ġthyself":4648,"Ġindeed":4649,"Ġcharged":4650,"Ġmedical":4651,"Ġmultim":4652,"ds":4653,"ez":4654,"ffe":4655,"Ġcovered":4656,"Ġhunt":4657,"utch":4658,"ĠPart":4659,"olution":4660,"Ġproceed":4661,"Ġspark":4662,"Ġ46":4663,"otten":4664,"Ġslew":4665,"Ġlargest":4666,"Ġprofession":4667,"Ġissues":4668,"ĠEngland":4669,"Ġbiggest":4670,"born":4671,"joy":4672,"nant":4673,"ram":4674,"Ġwww":4675,"Ġbound":4676,"Ġmob":4677,"Ġthick":4678,"Ġund":4679,"Ġusers":4680,"Ġgroups":4681,"2300":4682,"Ġpopular":4683,"Ġdevelopment":4684,"2018042300":4685,"Ġsacrifice":4686,"ding":4687,"kins":4688,"long":4689,"Ġmach":4690,"Ġcup":4691,"vey":4692,"ĠServ":4693,"arted":4694,"Ġteeth":4695,"Ġperish":4696,"Ġquit":4697,"Ġimage":4698,"Ġparticular":4699,"Ġsafety":4700,"IP":4701,"Pre":4702,"yal":4703,"Ġsize":4704,"Ġsorrow":4705,"ashed":4706,"Ġredu":4707,"Ġspots":4708,"Ġexact":4709,"Ġhaters":4710,"Ġaccused":4711,"Ġcommitted":4712,"azing":4713,"Ġjudges":4714,"Ġentered":4715,"shit":4716,"Ġmanagement":4717,"Trump":4718,"Ġmultimedia":4719,"Rock":4720,"gl":4721,"Ġbirth":4722,"Ġmention":4723,"atives":4724,"Ġnin":4725,"Ġnaked":4726,"vert":4727,"ading":4728,"Ġrac":4729,"ĠHigh":4730,"istic":4731,"Ġblunt":4732,"Ġgrace":4733,"Ġsmile":4734,"Ġended":4735,"Ġappointed":4736,"Ġintro":4737,"Ġforecast":4738,"Ġpersonal":4739,"Ġdumb":4740,"asant":4741,"Ġhoney":4742,"Ġbeha":4743,"Ġmeasure":4744,"ĠMus":4745,"raph":4746,"outhern":4747,"istry":4748,"Ġspeaking":4749,"Ġmessage":4750,"Ġcritic":4751,".]":4752,"64":4753,"ouston":4754,"Ġpath":4755,"Ġdip":4756,"Ġlength":4757,"Ġrent":4758,"Ġallowed":4759,"Ġvar":4760,"udes":4761,"Ġtherein":4762,"Ġflag":4763,"Ġthanks":4764,"ancy":4765,"ENT":4766,"Ġwaiting":4767,"Ġgeneration":4768,"Ġsolutions":4769,"ĠTechnav":4770,"Ġrejoice":4771,"ĠCounty":4772,"Mr":4773,"can":4774,"might":4775,"ica":4776,"ĠChe":4777,"ĠOff":4778,"Ġener":4779,"ĠViet":4780,"Maybe":4781,"Check":4782,"62":4783,"First":4784,"Turn":4785,"cher":4786,"iber":4787,"mar":4788,"win":4789,"reth":4790,"ĠTake":4791,"ĠMary":4792,"Ġsignific":4793,"Ġlegisl":4794,"Ġcelebr":4795,"Ġanalyst":4796,"Ġunclean":4797,"ĠBenjamin":4798,"GY":4799,"Ġarose":4800,"Ġox":4801,"Ġdise":4802,"Ġtom":4803,"ĠMoroni":4804,"ĠGA":4805,"olf":4806,"appe":4807,"ĠOttawa":4808,"because":4809,"Ġserious":4810,"Ġintelligence":4811,"Ġsubject":4812,"Ġsalvation":4813,"Ġarrested":4814,"Tech":4815,"nel":4816,"ĠGet":4817,"Ġworry":4818,"Ġresult":4819,"Ġstudents":4820,"Ġrequest":4821,"Ġcircum":4822,"La":4823,"wty":4824,"erm":4825,"isher":4826,"agg":4827,"uled":4828,"Ġ2014":4829,"Ġfinish":4830,"Ġgovernor":4831,"ologies":4832,"Ġmeaning":4833,"Ġgrab":4834,"after":4835,"75":4836,"bum":4837,"oam":4838,"rect":4839,"Ġisn":4840,"Ġplant":4841,"Ġabs":4842,"Ġexample":4843,"Ġregard":4844,"ĠComp":4845,"Ġlearned":4846,"Ġespecially":4847,"ĠAustralia":4848,"His":4849,"eans":4850,"Ġonline":4851,"eping":4852,"Ġexist":4853,"Ġpride":4854,"Ġcalls":4855,"Ġresident":4856,"Ġregular":4857,"Ġsuspect":4858,"Ġhorse":4859,"Ġought":4860,"Ġcult":4861,"Ġcivil":4862,"ĠAh":4863,"Ġep":4864,"entle":4865,"ural":4866,"Ġlif":4867,"hips":4868,"Ġark":4869,"ending":4870,"ĠVer":4871,"Ġquiet":4872,"Ġspec":4873,"Ġ60":4874,"Ġlawmakers":4875,"Ġpulled":4876,"Ġextra":4877,"ĠGroup":4878,"ĠCanada":4879,"ĠCaptain":4880,"ĠJoshua":4881,"iest":4882,"Ġbid":4883,"Ġcases":4884,"arr":4885,"ala":4886,"Ġstates":4887,"Ġisland":4888,"Ġsail":4889,"ĠGP":4890,"Ġjourney":4891,"Ġcla":4892,"Ġindivid":4893,"Ġrequire":4894,"Know":4895,"Phil":4896,"zen":4897,"Ġtick":4898,"Ġsides":4899,"rection":4900,"Ġgrew":4901,"Ġnatural":4902,"ĠPM":4903,"Ġroof":4904,"ĠUp":4905,"areth":4906,"ĠHealth":4907,"Think":4908,"ĠBenz":4909,"Ġweapons":4910,"Spe":4911,"ses":4912,"set":4913,"ux":4914,"uit":4915,"itiz":4916,"Ġpitch":4917,"Ġhits":4918,"Ġnecess":4919,"ĠRoy":4920,"Ġchosen":4921,"Ġremem":4922,"Ġswall":4923,"Ġsunshine":4924,"Ġmodel":4925,"):":4926,"73":4927,"Woo":4928,"just":4929,"Ġbars":4930,"Ġcas":4931,"orge":4932,"eds":4933,"Ġpoll":4934,"Ġhorn":4935,"Ġthats":4936,"ste":4937,"ilty":4938,"ĠGold":4939,"raim":4940,"Ġdeg":4941,"Ġ500":4942,"ĠStubb":4943,"Ġends":4944,"Ġguy":4945,"ERIC":4946,"Ġsouls":4947,"Ġfighting":4948,"Ġrisk":4949,"Ġvictims":4950,"Ġalleged":4951,"Ġparents":4952,"Ġinhabitants":4953,"88":4954,"Til":4955,"dest":4956,"Ġooh":4957,"owers":4958,"ĠAug":4959,"Ġhowever":4960,"ĠVancouver":4961,"Ġdism":4962,"Ġattorney":4963,"Ġproduction":4964,"Ġdrag":4965,"ĠPhilistines":4966,"Ġrespons":4967,"Ġcolor":4968,"Ġvalue":4969,"Ġlocked":4970,"Ġhouses":4971,"monton":4972,"74":4973,"Pol":4974,"Ġfie":4975,"Ġlines":4976,"igan":4977,"Ġreven":4978,"ĠSil":4979,"Ġric":4980,"ĠChan":4981,"ĠGreen":4982,"umber":4983,"Ġ--":4984,"ĠVirginia":4985,"Ad":4986,"Con":4987,"Okay":4988,"San":4989,"TM":4990,"UN":4991,"ĠYeah":4992,"edom":4993,"Ġphys":4994,"owl":4995,"Ġrange":4996,"ĠMon":4997,"things":4998,"ĠWinnipeg":4999,"ORTH":5000,"Ġcriminal":5001,"Ġaccom":5002,"Ġadvance":5003,"Ġbrothers":5004,"Ġsubur":5005,"board":5006,"Ġemployees":5007,"EM":5008,"gency":5009,"Ġbones":5010,"Ġpour":5011,"Ġdry":5012,"omen":5013,"ĠDay":5014,"ĠDel":5015,"idered":5016,"Ġfallen":5017,"Ġdiff":5018,"Ġunderstanding":5019,"ĠColorado":5020,"ĠQueequeg":5021,"Ġlimit":5022,"Ġsir":5023,"Ġwest":5024,"Ġboot":5025,"asse":5026,"Ġmember":5027,"Ġrush":5028,"ĠMiss":5029,"igned":5030,"Ġlands":5031,"Ġpreach":5032,"Ġcommittee":5033,"Ġsettle":5034,"Ġprophes":5035,"Ġprepare":5036,"Ġescape":5037,"Ġseventh":5038,"Ġinflu":5039,"Ġpubl":5040,"cont":5041,"itches":5042,"Ġmut":5043,"Ġmaterial":5044,"Ġfro":5045,"lled":5046,"kel":5047,"ĠMich":5048,"Ġwash":5049,"ĠNove":5050,"Ġgoals":5051,"Ġ38":5052,"Ġjustice":5053,"Ġflip":5054,"Ġofficer":5055,"Ġwalking":5056,"ĠArt":5057,"Ġopportunity":5058,"razil":5059,"Hell":5060,"LE":5061,"part":5062,"Ġwet":5063,"Ġcab":5064,"Ġpure":5065,"omuch":5066,"ete":5067,"ĠRam":5068,"isten":5069,"Ġleague":5070,"ugs":5071,"Ġpartner":5072,"Ġremains":5073,"Ġassist":5074,"ĠJohnson":5075,"Ġangels":5076,"Ġdaily":5077,"Ġorganiz":5078,"Gr":5079,"sa":5080,"ero":5081,"Ġpan":5082,"Ġreached":5083,"ĠMel":5084,"ĠGF":5085,"ĠDiv":5086,"Ġdriven":5087,"Ġapproach":5088,"Ġsimilar":5089,"Ġspending":5090,"Ġtraining":5091,"Ġenvironment":5092,"Ġcredit":5093,"Ġpurpose":5094,"54":5095,"Mother":5096,"Please":5097,"bre":5098,"gu":5099,"wr":5100,"Ġtim":5101,"Ġlick":5102,"veland":5103,"ĠBrooklyn":5104,"ĠPts":5105,"ondon":5106,"ube":5107,"Ġguilty":5108,"Ġboom":5109,"Ġwatching":5110,"Ġappeared":5111,"ĠRepublicans":5112,"ITED":5113,"ĠOlympic":5114,"Ġidea":5115,"Ġenergy":5116,"77":5117,"89":5118,"Ġtast":5119,"icide":5120,"oog":5121,"ĠBill":5122,"ĠRick":5123,"Ġclosed":5124,"Ġhandle":5125,"Ġgreater":5126,"Ġtalks":5127,"Ġstopped":5128,"ibility":5129,"Ġsteel":5130,"Ġprojects":5131,"ĠGermany":5132,"Ġbodies":5133,"63":5134,"69":5135,"Hit":5136,"ID":5137,"chers":5138,"obe":5139,"pa":5140,"Ġlone":5141,"leg":5142,"ĠPort":5143,"Ġconvers":5144,"Ġplat":5145,"Ġwhoa":5146,"Ġloves":5147,"Ġruns":5148,"ekiah":5149,"Ġincludes":5150,"Ġsimple":5151,"ĠEnglish":5152,"command":5153,"Ġinvolved":5154,"ja":5155,"era":5156,"Ġlying":5157,"ĠSome":5158,"Ġwhosoever":5159,"aints":5160,"Ġsake":5161,"ĠEph":5162,"Ġsubs":5163,"Ġworse":5164,"Ġ55":5165,"Ġperhaps":5166,"Ġimag":5167,"ashion":5168,"Ġputting":5169,"Ġmissed":5170,"iami":5171,"Ġinjury":5172,"ĠMexico":5173,"72":5174,"Los":5175,"ius":5176,"when":5177,"Ġaud":5178,"hamed":5179,"Ġbeats":5180,"Ġweather":5181,"Ġlies":5182,"Ġthang":5183,"Ġstruck":5184,"Ġbeloved":5185,"Ġevidence":5186,"Ġmovie":5187,"Ġstudy":5188,"Ġbullshit":5189,"ĠAMERIC":5190,"ĠDemocrats":5191,"run":5192,"Ġayy":5193,"Ġcal":5194,"Ġdate":5195,"Ġloose":5196,"attered":5197,"ador":5198,"uries":5199,"ĠDar":5200,"ĠHill":5201,"ĠIslam":5202,"Ġworked":5203,"Ġcloudy":5204,"Ġjoined":5205,"Ġcollege":5206,"ĠNovember":5207,"Americ":5208,"des":5209,"del":5210,"ios":5211,"lad":5212,"Ġwives":5213,"ĠTwo":5214,"Ġdocum":5215,"Ġempty":5216,"Ġmission":5217,"Ġsteps":5218,"Ġfunny":5219,"ĠDemocratic":5220,"stitution":5221,"Ġsharp":5222,"Break":5223,"ba":5224,"Ġbath":5225,"Ġpal":5226,"Ġbeheld":5227,"ĠAlex":5228,"Ġrout":5229,"astic":5230,"ĠEar":5231,"Ġ58":5232,"erved":5233,"Ġturning":5234,"Ġguys":5235,"Ġmotherfucking":5236,"Ġdriving":5237,"clear":5238,"ĠCharl":5239,"ĠObama":5240,"Good":5241,"ghan":5242,"great":5243,"Ġfan":5244,"star":5245,"through":5246,"ĠGame":5247,"aps":5248,"elly":5249,"Ġaffect":5250,"ancing":5251,"ĠYet":5252,"Ġmakin":5253,"Ġsoftware":5254,"Ġbigger":5255,"ĠAfrican":5256,"Ġdiamonds":5257,"aire":5258,"Ġjaw":5259,"ĠRober":5260,"Ġplus":5261,"berg":5262,"Ġcrown":5263,"Ġindepend":5264,"Ġtransgress":5265,"Ġobject":5266,"Ġprofit":5267,"Chicago":5268,"ĠAfrica":5269,"Ġpractice":5270,"secutors":5271,"RO":5272,"Since":5273,"Talk":5274,"Ġdomin":5275,"ĠTEC":5276,"Ġshame":5277,"Ġspring":5278,"Ġsuit":5279,"Ġunf":5280,"Ġfeels":5281,"ĠZion":5282,"Ġfamous":5283,"Ġwalls":5284,"Ġeconomic":5285,"Ġeffort":5286,"Republic":5287,"Ġdiffic":5288,"ieth":5289,"rum":5290,"Ġcou":5291,"ĠAir":5292,"aches":5293,"acles":5294,"Ġrow":5295,"Ġanim":5296,"Ġareas":5297,"Ġalbum":5298,"Ġwhatsoever":5299,"Ġenjoy":5300,"Ġunc":5301,"Ġunless":5302,"Ġcommandment":5303,"Ġrocks":5304,"astern":5305,"ĠIndia":5306,"Ġanalysis":5307,"Ġsuggest":5308,"Ref":5309,"rick":5310,"isters":5311,"Ġpiss":5312,"Ġdress":5313,"acts":5314,"urd":5315,"ĠCy":5316,"Ġabuse":5317,"Ġflood":5318,"ailed":5319,"Ġstrateg":5320,"Ġcondem":5321,"Real":5322,"67":5323,"chen":5324,"made":5325,"sm":5326,"oned":5327,"aters":5328,"usion":5329,"Ġwaste":5330,"ĠDirect":5331,"ĠNORTH":5332,"aped":5333,"ethod":5334,"Ġcontract":5335,"Ġfinally":5336,"eneral":5337,"Ġlegs":5338,"Ġheavens":5339,"Ġsatis":5340,"Ġweeke":5341,"Ġbeasts":5342,"Ġtotal":5343,"Better":5344,"Ġ00":5345,"inite":5346,"Ġsad":5347,"leep":5348,"Ġwel":5349,"Ġlived":5350,"ĠJim":5351,"ĠHum":5352,"Ġvalley":5353,"Ġplates":5354,"Ġtrick":5355,"Ġeveryone":5356,"Ġens":5357,"Ġpassion":5358,"ruption":5359,"Ġsteal":5360,"Ġcoverage":5361,"ĠMoab":5362,"Ġvessels":5363,"Ġcubits":5364,"ĠUNITED":5365,"ĠAMERICA":5366,"ET":5367,"Have":5368,"OO":5369,"vent":5370,"wind":5371,"iny":5372,"Ġsna":5373,"itor":5374,"Ġluck":5375,"Ġyouth":5376,"emed":5377,"ĠHa":5378,"ours":5379,"arks":5380,"oking":5381,"Ġcru":5382,"Ġplayoff":5383,"Ġstranger":5384,"Ġtelling":5385,"roph":5386,"Ġhundreds":5387,"Ġstead":5388,"Ġannual":5389,"Ġtitle":5390,"IV":5391,"Ne":5392,"loy":5393,"oah":5394,"Ġtal":5395,"Ġach":5396,"reck":5397,"has":5398,"haz":5399,"Ġbab":5400,"Ġbump":5401,"ato":5402,"Ġgen":5403,"roat":5404,"ĠCHAPTER":5405,"Ġliqu":5406,"cean":5407,"raw":5408,"ĠHouston":5409,"akin":5410,"Ġtruly":5411,"Ġnose":5412,"Ġchari":5413,"Ġconsidered":5414,"ENCE":5415,"Ġdeclare":5416,"Ġhighest":5417,"Ġexecutive":5418,"Florida":5419,"ĠWilliams":5420,"Ġlanguage":5421,"twitter":5422,"vision":5423,"word":5424,"Ġdude":5425,"ĠBob":5426,"rible":5427,"Ġgrad":5428,"Ġcompass":5429,"Ġremoved":5430,"Ġassault":5431,"Ġbelow":5432,"Ġboats":5433,"ibly":5434,"ursed":5435,"Ġadvis":5436,"Ġkinda":5437,"Ġcondition":5438,"Ġarmies":5439,"Ġmanager":5440,"Ġsymb":5441,"Ġdigital":5442,"Ġetern":5443,"Ġnumbers":5444,"Had":5445,"pre":5446,"rin":5447,"Ġcards":5448,"Ġfem":5449,"Ġpound":5450,"sell":5451,"stance":5452,"ĠSlim":5453,"ĠJong":5454,"ĠDec":5455,"ĠFC":5456,"Ġconce":5457,"Ġsuffe":5458,"ccording":5459,"Ġamount":5460,"Ġgrass":5461,"Ġ57":5462,"119":5463,"forth":5464,"Ġdevices":5465,"Ġpossession":5466,"Ġincreased":5467,"Ġsituation":5468,"Ġbottles":5469,"Her":5470,"ns":5471,"Ġdrew":5472,"ĠKid":5473,"Ġfeast":5474,"Ġplayin":5475,"Ġlaws":5476,"THER":5477,"Ġmaintain":5478,"ĠJanuary":5479,"ĠMarket":5480,"FL":5481,"car":5482,"game":5483,"pet":5484,"Ġlack":5485,"Ġrede":5486,"Ġstock":5487,"ĠDa":5488,"ĠDef":5489,"ĠDev":5490,"akistan":5491,"Ġnoise":5492,"Ġrobb":5493,"ishment":5494,"Ġchains":5495,"ĠChris":5496,"Ġcontinued":5497,"according":5498,"ĠInternational":5499,"61":5500,"Sl":5501,"core":5502,"two":5503,"Ġtall":5504,"Ġhors":5505,"lement":5506,"ersec":5507,"Ġenfor":5508,"Ġfeelin":5509,"ĠThom":5510,"ATES":5511,"ĠGrand":5512,"Ġneighbor":5513,"looking":5514,"Ġelders":5515,"ĠCleveland":5516,"Ġscheduled":5517,"lasting":5518,"Ġah":5519,"Ġlink":5520,"atory":5521,"Ġrates":5522,"ĠBrazil":5523,"ĠJul":5524,"ables":5525,"Ġdear":5526,"ĠEven":5527,"Ġprove":5528,"eller":5529,"ĠKe":5530,"Ġclimb":5531,"Ġ2012":5532,"ĠAfghan":5533,"Ġcollect":5534,"Ġexplain":5535,"Ġorganization":5536,"Ġcandid":5537,"ĠSmith":5538,"Ġproperty":5539,"Ġopposition":5540,"Fr":5541,"Follow":5542,"fall":5543,"jud":5544,"Ġtail":5545,"Ġcrib":5546,"ingers":5547,"Ġgentle":5548,"Ġnort":5549,"Ġfort":5550,"thlet":5551,"ĠJuly":5552,"ĠNBA":5553,"Ġaint":5554,"Ġolder":5555,"Ġasking":5556,"Ġprovides":5557,"Ġbottle":5558,"ĠMinister":5559,"Ġfavorite":5560,"ĠSnoop":5561,"Ġhearken":5562,"Ġplatform":5563,"uclear":5564,"Ġtough":5565,"Ġbal":5566,"Ġcard":5567,"Ġcalm":5568,"orks":5569,"aries":5570,"Ġfors":5571,"ĠSal":5572,"ĠMill":5573,"Ġasse":5574,"Ġtwe":5575,"Ġprem":5576,"Ġremind":5577,"azon":5578,"Ġrolling":5579,"Gotta":5580,"Ġburned":5581,"ĠCenter":5582,"Ar":5583,"Feel":5584,"IF":5585,"Per":5586,"Than":5587,"every":5588,"Ġbri":5589,"ences":5590,"ĠMu":5591,"ĠMontreal":5592,"Ġkil":5593,"ĠDaddy":5594,"Ġtrunk":5595,"Ġshoulder":5596,"rics":5597,"Ġincident":5598,"Ġmedic":5599,"anaan":5600,"ĠDrake":5601,"Ġweekend":5602,"Toronto":5603,"aur":5604,"put":5605,"van":5606,"Ġdaw":5607,"stood":5608,"ĠPal":5609,"oses":5610,"ĠEs":5611,"Ġadop":5612,"Ġrepro":5613,"Ġwinning":5614,"Ġcurse":5615,"Ġpresidential":5616,"Ġconduct":5617,"Somebody":5618,"Ġseeking":5619,"Ġzone":5620,"Ġseparate":5621,"Ġimprove":5622,"Motherfuck":5623,"76":5624,"Apr":5625,"Life":5626,"ae":5627,"Ġtoss":5628,"ata":5629,"urance":5630,"Ġwhore":5631,"Ġselect":5632,"ĠWall":5633,"Ġdoctor":5634,"ulation":5635,"Ġ47":5636,"Ġprior":5637,"Ġfully":5638,"Ġrollin":5639,"Ġpromised":5640,"TERN":5641,"Ġinjured":5642,"ealous":5643,"Ġspokesman":5644,"ĠVietn":5645,"bled":5646,"cure":5647,"Ġwings":5648,"Ġcats":5649,"isco":5650,"Ġpist":5651,"asc":5652,"oms":5653,"uses":5654,"ĠThy":5655,"together":5656,"Ġflight":5657,"Ġadm":5658,"Ġdrama":5659,"Ġinsomuch":5660,"Ġdecades":5661,"Ġcompetition":5662,"Ġcaptivity":5663,"Ġestablished":5664,"Ġmultiple":5665,"Ġpocket":5666,"ĠNicki":5667,"stein":5668,"Ġlonely":5669,"71":5670,"CH":5671,"Vegas":5672,"gain":5673,"sl":5674,"uing":5675,"west":5676,"hai":5677,"Ġcitiz":5678,"estern":5679,"Ġyield":5680,"Ġgall":5681,"stead":5682,"eman":5683,"Ġjournal":5684,"ĠFBI":5685,"ĠRem":5686,"Ġworst":5687,"Ġtear":5688,"Stop":5689,"Ġreview":5690,"Ġengine":5691,"Ġchampions":5692,"Ġefforts":5693,"ĠStarbuck":5694,"Ġriches":5695,"Last":5696,"kish":5697,"Ġsore":5698,"ros":5699,"ĠTampa":5700,"ĠSee":5701,"ĠMatt":5702,"ĠWell":5703,"ĠHall":5704,"antage":5705,"ĠRoc":5706,"Ġworship":5707,"Ġchase":5708,"Ġcris":5709,"Ġattacks":5710,"Ġburied":5711,"Ġmurd":5712,"ATION":5713,"Ġpreviously":5714,"Ġjobs":5715,"ĠCapit":5716,"ĠSamuel":5717,"Ġanti":5718,"ĠTurkey":5719,"Sometimes":5720,"Ġhorses":5721,"ST":5722,"mine":5723,"point":5724,"Ġgates":5725,"Ġnah":5726,"Ġhall":5727,"ĠMed":5728,"Ġ36":5729,"Ġcontact":5730,"Ġharder":5731,"lessed":5732,"Ġactually":5733,"otection":5734,"Ġfellow":5735,"Ġsystems":5736,"Ġoperations":5737,"Another":5738,"Ġsuddenly":5739,"Gl":5740,"Jer":5741,"while":5742,"Ġbone":5743,"aria":5744,"Ġhuge":5745,"ĠTal":5746,"ĠCons":5747,"Ġju":5748,"Ġlog":5749,"Ġbreaking":5750,"Ġstarts":5751,"ĠChamp":5752,"Ġtestim":5753,"ĠPolice":5754,"ĠParis":5755,"Refrain":5756,"Did":5757,"Ed":5758,"gent":5759,"gthen":5760,"pher":5761,"uk":5762,"heart":5763,"inner":5764,"Ġfame":5765,"eness":5766,"asters":5767,"Ġhes":5768,"Ġstream":5769,"ĠMars":5770,"ĠHook":5771,"olks":5772,"apnews":5773,"Ġpeep":5774,"Ġchop":5775,"Ġkeeping":5776,"Ġremained":5777,"ension":5778,"Ġreality":5779,"Ġmomma":5780,"Ġdifference":5781,"Ġpleasant":5782,"Ġrising":5783,"ĠGOP":5784,"ĠOlympics":5785,"engers":5786,"Ġlawyer":5787,"Ġsuffered":5788,"ibe":5789,"Ġsorry":5790,"Ġcattle":5791,"ĠBet":5792,"ĠLee":5793,"ĠPut":5794,"Ġclick":5795,"Ġcoke":5796,"Ġdelight":5797,"Ġacqu":5798,"Ġsolution":5799,"Ġprevent":5800,"Ġilleg":5801,"Ġfilm":5802,"Ġdescrib":5803,"known":5804,"ĠSTATES":5805,"ĠEphraim":5806,"Are":5807,"Su":5808,"Ġaward":5809,"Ġfunk":5810,"orter":5811,"lection":5812,"ĠTHE":5813,"ĠSl":5814,"Ġsem":5815,"hens":5816,"ĠRy":5817,"ĠEvery":5818,"Ġplaced":5819,"Ġearn":5820,"Ġbringing":5821,"Ġdecided":5822,"certain":5823,"Ġintegr":5824,"Ġtreatment":5825,"Ġopportunities":5826,"Ġagreement":5827,"did":5828,"even":5829,"iot":5830,"Ġtied":5831,"hant":5832,"onse":5833,"Ġcher":5834,"Ġfier":5835,"Ġlosing":5836,"ican":5837,"using":5838,"Ġstom":5839,"ĠMane":5840,"Ġven":5841,"pton":5842,"Ġquality":5843,"Ġnights":5844,"ĠĠĠĠĠ":5845,"hard":5846,"cience":5847,"Ġrolled":5848,"Ġconditions":5849,"Ġpurcha":5850,"Ġindustrial":5851,"prof":5852,"Ġmagn":5853,"White":5854,"Ġbeside":5855,"Ġprosper":5856,"Up":5857,"say":5858,"Ġsens":5859,"atan":5860,"Ġthunder":5861,"iment":5862,"Ġrough":5863,"Ġaside":5864,"ĠTheir":5865,"hio":5866,"Ġsport":5867,"ĠHere":5868,"Ġcontain":5869,"Ġskills":5870,"ĠAsia":5871,"Ġwinner":5872,"Ġfiled":5873,"Haha":5874,"Plus":5875,"ĠEdmonton":5876,"Ġholla":5877,"ĠTechnavio":5878,"UT":5879,"Wednesday":5880,"gment":5881,"Ġwack":5882,"Ġfra":5883,"Ġfold":5884,"Ġgift":5885,"Ġreject":5886,"Ġwhip":5887,"ĠColl":5888,"ĠDen":5889,"assar":5890,"Ġwriting":5891,"Ġkeeps":5892,"Ġcounter":5893,"Ġsuppose":5894,"cient":5895,"Ġapart":5896,"Ġtrends":5897,"Ġreigned":5898,"Ġnetwork":5899,"sych":5900,"ourage":5901,"People":5902,"!!":5903,"Boy":5904,"FER":5905,"HN":5906,"aac":5907,"lom":5908,"ties":5909,"Ġtip":5910,"Ġcream":5911,"lla":5912,"Ġdedic":5913,"Ġstorm":5914,"Ġwebs":5915,"Ġupd":5916,"ĠDid":5917,"ortion":5918,"ĠOTHER":5919,"Ġsports":5920,"Ġblame":5921,"Ġbrass":5922,"Ġterm":5923,"ĠFranc":5924,"Ġgenerations":5925,"remiah":5926,"Ġedge":5927,"Ġhustle":5928,"Ġfailed":5929,"Ġweapon":5930,"Ġimmigration":5931,"Ġsplit":5932,"asketball":5933,"Aye":5934,"Ġir":5935,"Ġtired":5936,"Ġske":5937,"Ġobe":5938,"Ġbi":5939,"Ġdil":5940,"Ġhill":5941,"also":5942,"ander":5943,"ifest":5944,"ĠRod":5945,"Ġknees":5946,"Ġprogress":5947,"ĠOur":5948,"Ġscar":5949,"Ġchoice":5950,"Ġpassing":5951,"Ġ73":5952,"ockey":5953,"upreme":5954,"Ġwinter":5955,"Ġproduce":5956,"Ġhomes":5957,"Ġsongs":5958,"Ġdespite":5959,"ĠNotorious":5960,"Ġcontributed":5961,"ĠJackson":5962,"Ġdifficult":5963,"IG":5964,"saying":5965,"edy":5966,"asp":5967,"Ġstack":5968,"ĠBone":5969,"ĠLab":5970,"Ġjoint":5971,"Ġdoct":5972,"Ġclock":5973,"Ġthence":5974,"oboam":5975,"ĠHez":5976,"Ġretail":5977,"Ġopening":5978,"nedy":5979,"Once":5980,"Ġballs":5981,"THE":5982,"Ġlabor":5983,"ĠCommittee":5984,"Ġbreathe":5985,"ĠMoreover":5986,"ĠNevertheless":5987,"Ġclaims":5988,"ĠMichigan":5989,"De":5990,"Je":5991,"Pull":5992,"four":5993,"heth":5994,"Ġpuff":5995,"ĠIts":5996,"Ġhoo":5997,"ĠAN":5998,"ĠSch":5999,"Ġrank":6000,"Ġliber":6001,"ĠLook":6002,"unched":6003,"agn":6004,"Ġnumbered":6005,"Everything":6006,"Ġdogs":6007,"Ġsmoking":6008,"OLO":6009,"Ġeducation":6010,"Ġtomorrow":6011,"Ġspecific":6012,"85":6013,"EAL":6014,"Too":6015,"Tai":6016,"law":6017,"ua":6018,"uce":6019,"works":6020,"Ġtie":6021,"Ġfought":6022,"Ġduck":6023,"Ġreward":6024,"irates":6025,"ĠTre":6026,"Ġrare":6027,"emp":6028,"ĠFrom":6029,"Ġtrigg":6030,"Ġknowing":6031,"Ġ2013":6032,"ĠItaly":6033,"Ġprovided":6034,"Ġphot":6035,"Ġlearning":6036,"Ġcentral":6037,"iety":6038,"Ġprecious":6039,"Colorado":6040,"Ġdetermin":6041,"Ġmachine":6042,"Ġexactly":6043,"gg":6044,"gers":6045,"rd":6046,"ym":6047,"Ġbounce":6048,"ications":6049,"Ġhaven":6050,"Ġstories":6051,"Ġwhither":6052,"ĠMat":6053,"ĠLondon":6054,"Ġashamed":6055,"Ġsabb":6056,"ĠJeezy":6057,"ĠPu":6058,"Ġcommer":6059,"Ġwherein":6060,"Ġanyone":6061,"Ġ63":6062,"Ġincluded":6063,"Ġappeal":6064,"Ġresponse":6065,"Ġdeny":6066,"ĠSyrian":6067,"ijah":6068,"Ġchampion":6069,"Ġallegations":6070,"Ġvehicle":6071,"rophone":6072,"81":6073,"Ab":6074,"gly":6075,"arre":6076,"urrection":6077,"ĠMass":6078,"ĠHome":6079,"ags":6080,"quod":6081,"onder":6082,"Ġscreen":6083,"Ġteen":6084,"Ġ41":6085,"Ġ65":6086,"Ġ80":6087,"Star":6088,"Ġfalling":6089,"Ġdriver":6090,"Ġwax":6091,"Alice":6092,"Ġlaunch":6093,"Ġsquee":6094,"ĠPequod":6095,"Ġhustler":6096,"Ġmirror":6097,"Ġspoil":6098,"OLOGY":6099,"Ġsabbath":6100,"83":6101,"damn":6102,"much":6103,"rated":6104,"orne":6105,"Ġlin":6106,"Ġwhis":6107,"ĠGood":6108,"hib":6109,"ountain":6110,"perm":6111,"Ġaccident":6112,"Ġhelping":6113,"Ġsilence":6114,"Ġfreedom":6115,"Ġdistrib":6116,"Ġridin":6117,"Ġcaptains":6118,"Ġvineyard":6119,"Ġdangerous":6120,"HL":6121,"Ġsand":6122,"erc":6123,"Ġbat":6124,"Ġfired":6125,"Ġpage":6126,"Ġpair":6127,"Ġtool":6128,"oti":6129,"ntil":6130,"ĠBeth":6131,"ĠGeneral":6132,"ĠWind":6133,"rav":6134,"ĠNor":6135,"oles":6136,"Ġeverywhere":6137,"anches":6138,"Ġswitch":6139,"Ġhappens":6140,"Ġmoves":6141,"righteous":6142,"Ġterms":6143,"Ġobl":6144,"Ġrequired":6145,"Ġpaint":6146,"Ġstrengthen":6147,"Ġverse":6148,"Ġmagic":6149,"porate":6150,"Ġdisease":6151,"FERENCE":6152,"86":6153,"ooth":6154,"press":6155,"Ġfashion":6156,"Ġlit":6157,"ĠMil":6158,"ĠMAN":6159,"ĠMiami":6160,"ĠLong":6161,"term":6162,"Ġjealous":6163,"ĠRob":6164,"Ġplane":6165,"Ġability":6166,"Ġswing":6167,"Ġsurround":6168,"eneath":6169,"Ġbooks":6170,"therefore":6171,"Ġjudgments":6172,"Ġbirds":6173,"ĠCONFERENCE":6174,"84":6175,"Listen":6176,"Mic":6177,"fast":6178,"hether":6179,"Ġathlet":6180,"Ġmast":6181,"Ġfaster":6182,"idel":6183,"Ġstation":6184,"ĠLamb":6185,"anda":6186,"ĠAndre":6187,"ĠRoss":6188,"ĠReg":6189,"itty":6190,"Ġscript":6191,"oked":6192,"Ġunique":6193,"Ġsmite":6194,"azy":6195,"ĠSpain":6196,"ĠJeff":6197,"Ġstrike":6198,"Ġauthority":6199,"Ġfoolish":6200,"Ġcosts":6201,"Ġdenied":6202,"Ġdesigned":6203,"Photo":6204,"79":6205,"Ay":6206,"EE":6207,"pers":6208,"power":6209,"than":6210,"Ġwid":6211,"Ġwave":6212,"Ġstress":6213,"Ġstunt":6214,"ĠMina":6215,"cknow":6216,"ĠPakistan":6217,"umble":6218,"agement":6219,"Ġspray":6220,"Ġ44":6221,"Ġcomput":6222,"ilead":6223,"ova":6224,"Ġdesolate":6225,"Ġemot":6226,"Ġindex":6227,"Ġangry":6228,"Ġinjuries":6229,"ĠJonathan":6230,"Police":6231,"Anaheim":6232,"Over":6233,"Ġmort":6234,"Ġdirt":6235,"Ġhither":6236,"icious":6237,"Ġhero":6238,"ids":6239,"ĠAz":6240,"ĠTop":6241,"ĠMad":6242,"ĠMur":6243,"Ġassoci":6244,"Them":6245,"ĠOffic":6246,"urely":6247,"oft":6248,"Ġheaded":6249,"Ġseconds":6250,"Throw":6251,"Ġsweat":6252,"ĠWhich":6253,"ĠCentral":6254,"Ġbleed":6255,"Will":6256,"mun":6257,"noon":6258,"pent":6259,"Ġsack":6260,"Ġpool":6261,"Ġnature":6262,"Ġnuclear":6263,"ette":6264,"Ġheed":6265,"ĠBent":6266,"ĠGreat":6267,"Ġshock":6268,"ordin":6269,"Ġprim":6270,"izes":6271,"Ġkeys":6272,"Ġ70":6273,"ictions":6274,"ruits":6275,"Ġlawsu":6276,"Ġsett":6277,"Ġ146":6278,"Ġsixth":6279,"Ġadvanced":6280,"ĠSean":6281,"Ġestim":6282,"Ġpatients":6283,"Ġsurvive":6284,"Ġnuts":6285,"ĠSept":6286,"asseh":6287,"Ġtaste":6288,"82":6289,"Dr":6290,"Qu":6291,"non":6292,"prop":6293,"rig":6294,"woman":6295,"Ġlion":6296,"Ġgre":6297,"asion":6298,"eted":6299,"ĠSupreme":6300,"urt":6301,"Ġrub":6302,"ĠCanaan":6303,"ĠBank":6304,"ĠHel":6305,"Ġwilling":6306,"Ġleaves":6307,"Ġperm":6308,"ĠAlso":6309,"Ġcheese":6310,"Ġexpress":6311,"Ġsounds":6312,"Ġdepartment":6313,"Ġavoid":6314,"Play":6315,"Ġtradition":6316,"ĠJustice":6317,"Ġchallenge":6318,"Ġsignificant":6319,"Roll":6320,"care":6321,"hon":6322,"lied":6323,"tag":6324,"Ġtape":6325,"inter":6326,"Ġfav":6327,"Ġnigh":6328,"oma":6329,"aming":6330,"ili":6331,"ĠLike":6332,"ĠFore":6333,"Ġ45":6334,"ĠChief":6335,"Ġthinkin":6336,"Ġmothers":6337,"Ġswim":6338,"Ġstatus":6339,"Ġrefuge":6340,"Ġstudent":6341,"Ġtemper":6342,"hemla":6343,"Ġdivision":6344,"Ġdeclared":6345,"Ġdefend":6346,"arahemla":6347,"Ġstretch":6348,"oogle":6349,"curement":6350,"CHAPTER":6351,"Ġ|":6352,"Ġwounded":6353,"Ġcrook":6354,"Ġpor":6355,"Ġpants":6356,"ĠII":6357,"Ġugly":6358,"ĠBer":6359,"rah":6360,"ĠHol":6361,"outs":6362,"ĠOut":6363,"Ġflu":6364,"ansas":6365,"Ġamid":6366,"behold":6367,"hoot":6368,"azz":6369,"Ġ90":6370,"formation":6371,"Ġhotel":6372,"ification":6373,"ĠLevi":6374,"Ġemergency":6375,"Ġmanufacturing":6376,"Ġnecessary":6377,"HNOLOGY":6378,"ĠMinaj":6379,"High":6380,"eer":6381,"ford":6382,"lah":6383,"life":6384,"ups":6385,"Ġtone":6386,"Ġmale":6387,"Ġfingers":6388,"ication":6389,"state":6390,"rive":6391,"ĠFort":6392,"Ġarmed":6393,"ĠIsaac":6394,"Ġcoat":6395,"Ġattend":6396,"Ġsentence":6397,"imply":6398,"Ġmicrophone":6399,"Ġblew":6400,"Ġshadow":6401,"Ġfulfilled":6402,"Ġpublished":6403,"Ġassemb":6404,"Ġacknow":6405,"Ġment":6406,"ĠIT":6407,"acing":6408,"stone":6409,"ooper":6410,"raight":6411,"Ġbutt":6412,"ĠKnow":6413,"Ġscient":6414,"Ġcrimes":6415,"Ġconserv":6416,"OND":6417,"Ġprayer":6418,"Ġhomies":6419,"Ġruling":6420,"Ġfaithful":6421,"Ġcreep":6422,"Ġhonor":6423,"Ġdetails":6424,"Ġleadership":6425,"Tampa":6426,"would":6427,"arily":6428,"arters":6429,"rol":6430,"illing":6431,"eler":6432,"ĠHen":6433,"ĠRec":6434,"Ġgosp":6435,"ulous":6436,"Ġprices":6437,"Ġafternoon":6438,"claim":6439,"aza":6440,"Ġheathen":6441,"Ġnegoti":6442,"Ġmillions":6443,"ĠRobert":6444,"Ġbrief":6445,"ĠChampions":6446,"ares":6447,"pir":6448,"wing":6449,"Ġsite":6450,"Ġcake":6451,"esse":6452,"enger":6453,"Ġeating":6454,"ĠSing":6455,"ĠMob":6456,"ĠDes":6457,"ĠDam":6458,"ĠHilton":6459,"ĠRic":6460,"oods":6461,"Ġloot":6462,"Ġflocks":6463,"Ġremnant":6464,"ossible":6465,"Ġwarning":6466,"Ġsteady":6467,"ĠJeremiah":6468,"Ġexperien":6469,"Looking":6470,"ĠCommun":6471,"Ġparticip":6472,"Ġbudget":6473,"Ġorganizations":6474,"Ġobey":6475,"XX":6476,"uild":6477,"Ġcents":6478,"Ġpet":6479,"Ġpicked":6480,"asy":6481,"roke":6482,"terday":6483,"unning":6484,"ums":6485,"Ġcongress":6486,"ĠOhio":6487,"Ġscattered":6488,"Ġourselves":6489,"ials":6490,"Ġwrist":6491,"ruary":6492,"Ġowners":6493,"Ġeverlasting":6494,"Ġrestaur":6495,"Ġtakin":6496,"Ġadvantage":6497,"ĠJeho":6498,"Ġreflect":6499,"Ġtechnologies":6500,"Ġtempt":6501,"Ġcustomer":6502,"Ġforgive":6503,"ĠCoast":6504,"Ġportion":6505,"ĠKennedy":6506,"Ġbaptized":6507,"Ġresidents":6508,"Ill":6509,"OW":6510,"called":6511,"ezy":6512,"kind":6513,"Ġast":6514,"Ġsne":6515,"Ġwaves":6516,"Ġmarch":6517,"sequ":6518,"ader":6519,"cks":6520,"Ġshook":6521,"essor":6522,"ĠHot":6523,"istered":6524,"ĠEU":6525,"gend":6526,"ĠKilla":6527,"Ġroot":6528,"Ġdidst":6529,"Ġbreast":6530,"Ġdisappe":6531,"Ġharpo":6532,"Ġacting":6533,"Show":6534,"Ġconfidence":6535,"ĠManasseh":6536,"ENE":6537,"ĠCarter":6538,"Ġbullet":6539,"yria":6540,"Ġslowly":6541,"ĠGeorge":6542,"Ġeternal":6543,"Ġcrisis":6544,"Ġgospel":6545,"rical":6546,"top":6547,"Ġ{":6548,"Ġtourn":6549,"Ġmigr":6550,"Ġmental":6551,"Ġped":6552,"Ġlic":6553,"Ġham":6554,"ads":6555,"ĠSar":6556,"ĠCa":6557,"ĠMen":6558,"istle":6559,"owned":6560,"Ġtracks":6561,"aptain":6562,"Ġoffers":6563,"Ġshed":6564,"ething":6565,"Ġbrick":6566,"Ġyounger":6567,"Ġrapid":6568,"Ġdivided":6569,"Ġprograms":6570,"ĠScott":6571,"Ġidentify":6572,"Ġarrived":6573,"ĠAtlanta":6574,"ĠIslamic":6575,"Jerusalem":6576,"Killa":6577,"fire":6578,"liam":6579,"mates":6580,"name":6581,"ront":6582,"erous":6583,"Ġcow":6584,"Ġstir":6585,"ĠSatan":6586,"Ġseas":6587,"ĠGree":6588,"ĠJu":6589,"ifying":6590,"ĠHaw":6591,"ĠFox":6592,"Ġknee":6593,"Ġconsec":6594,"Ġabund":6595,"Ġ52":6596,"obody":6597,"azin":6598,"Ġswift":6599,"Ġchanging":6600,"Ġattract":6601,"Ġshowers":6602,"Ġappre":6603,"Ġacts":6604,"Ġinsights":6605,"Ġdeadly":6606,"Ġuhh":6607,"Ġprotest":6608,"Ġsuccessful":6609,"Ġoccur":6610,"ĠLupe":6611,"Ġboost":6612,"Ġtribes":6613,"Ġradio":6614,"ĠTalib":6615,".'":6616,"Dav":6617,"UE":6618,"good":6619,"uzz":6620,"va":6621,"ini":6622,"Ġbeneath":6623,"Ġdom":6624,"Ġthrew":6625,"Ġstor":6626,"ĠCoun":6627,"ĠBell":6628,"alls":6629,"Ġnotice":6630,"estic":6631,"ĠNFL":6632,"ĠNassar":6633,"agon":6634,"abama":6635,"aka":6636,"ources":6637,"Ġexchange":6638,"onduct":6639,"Ġprince":6640,"Ġparties":6641,"Ġgreatest":6642,"anche":6643,"Ġentertain":6644,"Ġ139":6645,"Ġminds":6646,"Ġcontinually":6647,"Bring":6648,"Ġhopes":6649,"Ġcertainly":6650,"Ġsyn":6651,"Ġcritical":6652,"Ġborders":6653,"Ġconcerns":6654,"Ġtroops":6655,"liament":6656,"GA":6657,"Would":6658,"bon":6659,"don":6660,"ouble":6661,"Ġbold":6662,"Ġbail":6663,"ita":6664,"Ġdigg":6665,"Ġgives":6666,"Ġult":6667,"acher":6668,"ĠCr":6669,"ĠWeezy":6670,"ĠRiver":6671,"Ġvo":6672,"Ġabroad":6673,"ĠKong":6674,"Ġbranches":6675,"Ġamazing":6676,"offe":6677,"Ġscen":6678,"ĠIsh":6679,"Ġcrash":6680,"Ġhighly":6681,"Ġdevice":6682,"chant":6683,"Ġschools":6684,"Ġmodern":6685,"Ġcarrying":6686,"Ġdamage":6687,"ĠOffice":6688,"Ġtestimony":6689,"Ġdilig":6690,"En":6691,"Time":6692,"gen":6693,"Ġsimply":6694,"Ġoath":6695,"Ġbills":6696,"ĠCont":6697,"ĠGal":6698,"iece":6699,"Ġplenty":6700,"Ġtrump":6701,"Ġknoweth":6702,"Ġexcell":6703,"Ġclip":6704,"Ġqual":6705,"Ġslide":6706,"Ġanybody":6707,"Ġ2011":6708,"ĠLeban":6709,"Ġsurvey":6710,"Ġmorrow":6711,"Ġdemon":6712,"Ġburning":6713,"stitute":6714,"Ġgarments":6715,"Ġadditional":6716,"ĠFebruary":6717,"Ġenforcement":6718,"Ġnorthern":6719,"Could":6720,"PR":6721,"Said":6722,"wild":6723,"words":6724,"inct":6725,"Ġcode":6726,"ani":6727,"Ġyoure":6728,"ĠAp":6729,"Ġjury":6730,"Ġvac":6731,"Ġspin":6732,"Ġclap":6733,"Ġchicks":6734,"Ġdesce":6735,"Ġtrem":6736,"Ġplanned":6737,"thereof":6738,"fficient":6739,"Ġtrading":6740,"Ġmemo":6741,"Ġcloser":6742,"Ġhungry":6743,"ĠOctober":6744,"Ġanalysts":6745,"ĠDivision":6746,"Ġsatisf":6747,"Ġwelcome":6748,"ĠBentley":6749,"Cr":6750,"fol":6751,"pret":6752,"rid":6753,"take":6754,"uals":6755,"Ġpig":6756,"Ġdistrict":6757,"vere":6758,"imately":6759,"Ġwealth":6760,"estin":6761,"essions":6762,"Ġalright":6763,"ipment":6764,"Ġflock":6765,"Ġturns":6766,"ĠAmazon":6767,"Ġconfir":6768,"Ġflying":6769,"2018053":6770,"Ġpatient":6771,"ĠJoab":6772,"Ġsanctuary":6773,"ĠMartin":6774,"Ġoriginal":6775,"Ġwebsite":6776,"2018053000":6777,"Ind":6778,"UM":6779,"gun":6780,"oz":6781,"rang":6782,"Ġwont":6783,"Ġwreck":6784,"Ġmild":6785,"Ġfo":6786,"anks":6787,"ayed":6788,"Ġheight":6789,"Ġreact":6790,"ĠSO":6791,"Ġkit":6792,"ĠHell":6793,"ĠHolly":6794,"ĠNeb":6795,"Ġjeans":6796,"Ġmanifest":6797,"Ġbricks":6798,"Ġnowhere":6799,"Ġflash":6800,"Ġtext":6801,"Ġchamber":6802,"lands":6803,"Ġretire":6804,"Ġcuts":6805,"Uhh":6806,"Ġexpert":6807,"Ġhistor":6808,"Ġelectric":6809,"ĠInter":6810,"Ġenterpr":6811,"iasco":6812,"Ġlawyers":6813,"Ġbenefits":6814,"ĠSteve":6815,"Philadelphia":6816,"Ġswallow":6817,"Mark":6818,"Word":6819,"ection":6820,"iat":6821,"lock":6822,"Ġ#":6823,"Ġtor":6824,"itation":6825,"lly":6826,"Ġpap":6827,"Ġlam":6828,"arrow":6829,"among":6830,"ĠTw":6831,"ĠSperm":6832,"ĠClin":6833,"ĠBowl":6834,"oday":6835,"oli":6836,"ĠFiasco":6837,"Ġgoeth":6838,"Ġoverall":6839,"Ġcomplex":6840,"ender":6841,"Ġbitter":6842,"Ġwrought":6843,"Ġemail":6844,"Ġsupply":6845,"Ġsentenced":6846,"Ġwheel":6847,"Ġcorrect":6848,"Ġinnoc":6849,"Ġpoison":6850,"Ġagreed":6851,"ĠPacific":6852,"Ġabominations":6853,"Ġmeasures":6854,"Ġneighborhood":6855,"Ġcommercial":6856,"90":6857,"Ayo":6858,"Pop":6859,"Post":6860,"Tw":6861,"bid":6862,"high":6863,"lor":6864,"Ġbree":6865,"Ġdread":6866,"Ġghost":6867,"ĠSand":6868,"ĠShall":6869,"Ġram":6870,"ĠBur":6871,"ĠLaw":6872,"comp":6873,"Ġminor":6874,"Ġrelig":6875,"Ġmovement":6876,"Ġinstant":6877,"Ġterrible":6878,"Ġpurple":6879,"Ġeasily":6880,"Ġhonour":6881,"Ġanaly":6882,"ĠGlock":6883,"Ġbusy":6884,"Ġbaseball":6885,"Ġestablish":6886,"Ġrepeated":6887,"Ġgiveth":6888,"Remember":6889,"Ġlegislation":6890,"100":6891,"AH":6892,"Hot":6893,"Our":6894,"Ġsust":6895,"itar":6896,"Ġcateg":6897,"Ġpunk":6898,"Ġpushed":6899,"etime":6900,"Ġforced":6901,"Ġrum":6902,"Ġrip":6903,"ĠCole":6904,"ĠBlessed":6905,"chief":6906,"eline":6907,"Ġjet":6908,"que":6909,"Ġscience":6910,"Ġhated":6911,"ograph":6912,"Ġgirlfriend":6913,"Ġshowing":6914,"Ġ155":6915,"Ġinvestment":6916,"Ġballin":6917,"Ġobtained":6918,"Ġpleasure":6919,"Ġcease":6920,"Ġfigures":6921,"Ġpitched":6922,"ĠBritain":6923,"ĠDirector":6924,"ĠThomas":6925,"87":6926,"Kn":6927,"Nah":6928,"cr":6929,"cons":6930,"five":6931,"nie":6932,"uy":6933,"Ġairl":6934,"hafuck":6935,"Ġma":6936,"Ġtools":6937,"icing":6938,"Ġheav":6939,"Ġfeared":6940,"Ġcompared":6941,"clus":6942,"Ġqueen":6943,"Ġ71":6944,"Ġsmack":6945,"Ġgoods":6946,"Ġremove":6947,"Ġharm":6948,"ĠYo":6949,"Ġhelps":6950,"Ġfoundation":6951,"Three":6952,"ĠFrank":6953,"Ġfactors":6954,"Ġpleased":6955,"Ġexplos":6956,"ĠCommission":6957,"ĠDaniel":6958,"shalt":6959,"ĠChild":6960,"Ġlinen":6961,"EX":6962,"Tuesday":6963,"Until":6964,"Ġbunch":6965,"Ġgarden":6966,"icip":6967,"ĠTer":6968,"Ġwithd":6969,"ĠBas":6970,"ĠRoman":6971,"respass":6972,"ula":6973,"ategy":6974,"ĠEN":6975,"ĠOl":6976,"wear":6977,"Ġcommission":6978,"Ġresc":6979,"Ġ66":6980,"Ġserving":6981,"ĠAlabama":6982,"Ġadding":6983,"Ġincense":6984,"Ġpoppin":6985,"Ġstatutes":6986,"Ġdirectly":6987,"Ġconsumer":6988,"Ġcurrently":6989,"ynn":6990,"Ġutterly":6991,"Ġapplications":6992,"Ġsuburbs":6993,"American":6994,"ĠEarth":6995,"Ġliquor":6996,"Ġfemale":6997,"UL":6998,"Was":6999,"door":7000,"oa":7001,"rome":7002,"turn":7003,"tics":7004,"yl":7005,"Ġtent":7006,"Ġsample":7007,"Ġocean":7008,"Ġpounds":7009,"Ġpsych":7010,"iders":7011,"adem":7012,"ĠSub":7013,"Ġrings":7014,"Ġupper":7015,"Ġshawty":7016,"ĠRight":7017,"akim":7018,"okyo":7019,"ĠStr":7020,"Ġreporters":7021,"ĠĠĠĠ":7022,"Ġtouched":7023,"Ġeighth":7024,"Ġlevels":7025,"Ġfocused":7026,"mighty":7027,"Ġindependent":7028,"ĠTECHNOLOGY":7029,"\")":7030,"Jud":7031,"maid":7032,"went":7033,"hey":7034,"Ġaston":7035,"Ġpills":7036,"Ġdim":7037,"Ġdare":7038,"icians":7039,"imme":7040,"rian":7041,"ĠJAY":7042,"ĠPan":7043,"ĠWhile":7044,"rapped":7045,"antuck":7046,"pei":7047,"asty":7048,"Ġcancer":7049,"orty":7050,"Ġsperm":7051,"Ġgranted":7052,"horities":7053,"ĠZarahemla":7054,"evin":7055,"ĠNoah":7056,"going":7057,"Ġlaunched":7058,"ĠHowever":7059,"Ġissued":7060,"Ġlabel":7061,"Ġshewed":7062,"Ġrevealed":7063,"Ġstruggle":7064,"Ġignor":7065,"initely":7066,"Cha":7067,"South":7068,"water":7069,"Ġ^":7070,"Ġoption":7071,"Ġopin":7072,"Ġfuel":7073,"Ġpace":7074,"anish":7075,"Ġtow":7076,"ĠIce":7077,"Ġnerv":7078,"Ġhabit":7079,"amm":7080,"ĠBiz":7081,"esty":7082,"about":7083,"Ġcomments":7084,"Ġclin":7085,"Ġclient":7086,"Ġchose":7087,"Ġgoodbye":7088,"oca":7089,"ĠInn":7090,"ĠZW":7091,"Ġstands":7092,"Ġ137":7093,"Ġrestr":7094,"Ġinstrum":7095,"Ġcollabor":7096,"Ġlimited":7097,"Ġiniquities":7098,"Ġmemory":7099,"Ġordered":7100,"Ġchallenges":7101,"ĠSecurity":7102,"Clouds":7103,"ĠService":7104,"Ġlawsuit":7105,"91":7106,"99":7107,"Sn":7108,"may":7109,"pri":7110,"shi":7111,"Ġodd":7112,"Ġfet":7113,"ĠIS":7114,"Ġnomin":7115,"enture":7116,"ĠSqu":7117,"ĠCast":7118,"Ġjam":7119,"Ġbye":7120,"Ġveter":7121,"Ġexerc":7122,"Ġsomewhat":7123,"ĠHear":7124,"Ġsinned":7125,"Ġdesired":7126,"Ġpowerful":7127,"Though":7128,"Ġgolden":7129,"Ġcrying":7130,"Ġelimin":7131,"Ġsolid":7132,"Ġtyp":7133,"Ġmodels":7134,"Ġfields":7135,"Ġsquare":7136,"ĠSecret":7137,"Ġsurprise":7138,"Ġvarious":7139,"Ġbathroom":7140,"ĠHezekiah":7141,"Rs":7142,"bar":7143,"ker":7144,"krain":7145,"walk":7146,"Ġtorn":7147,"onna":7148,"ati":7149,"ĠId":7150,"sea":7151,"adi":7152,"ceived":7153,"ĠPrem":7154,"ĠDick":7155,"ĠHov":7156,"avin":7157,"comes":7158,"ĠIns":7159,"Ġmaketh":7160,"Ġblocks":7161,"Ġruled":7162,"Christ":7163,"Ġrebell":7164,"Ġfootball":7165,"Ġscreaming":7166,"Ġequipment":7167,"Ġsuspe":7168,"Ġthugs":7169,"Ġhyp":7170,"ĠNeither":7171,"ĠSaudi":7172,"orgia":7173,"Taiwan":7174,"ĠCouncil":7175,"UP":7176,"Ġbul":7177,"Ġmap":7178,"Ġmourn":7179,"Ġfoul":7180,"Ġfolks":7181,"Ġdinner":7182,"Ġgay":7183,"ĠAre":7184,"Ġune":7185,"Ġreasons":7186,"Ġmere":7187,"Ġrims":7188,"ĠMaster":7189,"Ġ(\"":7190,"ĠGen":7191,"rie":7192,"Ġovertime":7193,"Ġremark":7194,"Ġ89":7195,"Ġsecure":7196,"Ġguests":7197,"Ġbullets":7198,"Ġmetal":7199,"Ġstrip":7200,"Ġdrove":7201,"Ġrebounds":7202,"Hahaha":7203,"ĠBritish":7204,"Ġdismiss":7205,"Ġaccompl":7206,"Ġplayoffs":7207,"Ġachieve":7208,"cip":7209,"foot":7210,"give":7211,"some":7212,"isha":7213,"Ġdire":7214,"igure":7215,"ĠAtt":7216,"ĠLud":7217,"ĠGoogle":7218,"abilities":7219,"ĠRon":7220,"Ġknife":7221,"Ġdeb":7222,"ĠEric":7223,"Ġclients":7224,"Ġ43":7225,"ĠZeal":7226,"Ġactin":7227,"Ġ147":7228,"Ġstronger":7229,"Ġpromot":7230,"Ġselling":7231,"ĠMcC":7232,"ĠJustin":7233,"ĠTurkish":7234,"Ġpictures":7235,"Ġjewels":7236,"Down":7237,"EI":7238,"bed":7239,"Ġ,":7240,"Ġwound":7241,"Ġpip":7242,"ownt":7243,"Ġthroat":7244,"alty":7245,"ĠSun":7246,"tery":7247,"ĠFar":7248,"ĠRi":7249,"ĠOF":7250,"Ġbrown":7251,"ivin":7252,"Ġflat":7253,"Ġprotection":7254,"Ġeveryday":7255,"ogan":7256,"Ġimages":7257,"Ġworldwide":7258,"azar":7259,"Stay":7260,"Ġtalked":7261,"ĠLehi":7262,"Ġpropos":7263,"ribes":7264,"Ġstepped":7265,"Ġshorty":7266,"Ġcorruption":7267,"Ġviolent":7268,"Ġconsumers":7269,"Ġcharacters":7270,"Ġafford":7271,"Ġchairman":7272,"Ġvehicles":7273,"ĠPharrell":7274,"ĠAugust":7275,"Ġmedicine":7276,"\",":7277,"fin":7278,"li":7279,"rison":7280,"Ġol":7281,"hales":7282,"Ġpin":7283,"Ġdad":7284,"arant":7285,"ĠIve":7286,"kels":7287,"ĠLas":7288,"ctions":7289,"emon":7290,"agne":7291,"ĠEnt":7292,"Ġprocurement":7293,"ĠOak":7294,"hire":7295,"Ġspare":7296,"rency":7297,"Ġrod":7298,"Ġchronic":7299,"Ġgreatly":7300,"Stand":7301,"rows":7302,"Ġjudged":7303,"Ġ157":7304,"Ġadvoc":7305,"AND":7306,"Ġbury":7307,"ĠMrs":7308,"Ġverily":7309,"Ġequal":7310,"Ġpushing":7311,"Ġjumped":7312,"Ġbench":7313,"ĠAnton":7314,"Ġgivin":7315,"Ġdiplom":7316,"Ġpistol":7317,"Jesus":7318,"Mar":7319,"Rain":7320,"Walk":7321,"ca":7322,"ration":7323,"Ġsaints":7324,"erto":7325,"Ġbows":7326,"etts":7327,"Ġthither":7328,"uts":7329,"Ġheal":7330,"ĠAI":7331,"oore":7332,"ĠMag":7333,"ĠLim":7334,"ĠLake":7335,"ĠDie":7336,"ĠHan":7337,"ĠFirst":7338,"Ġspir":7339,"ĠUkrain":7340,"Ġgrant":7341,"Ġslight":7342,"Ġslang":7343,"Ġprey":7344,"Ġdisplay":7345,"Ġrealize":7346,"mael":7347,"Ġrelated":7348,"Ġsubstance":7349,"Ġfools":7350,"Ġchicken":7351,"Ġmagaz":7352,"lynn":7353,"Ġpockets":7354,"Ġmanufacture":7355,"Ġdetermined":7356,"ĠZealand":7357,"Ahh":7358,"Hop":7359,"Nobody":7360,"Top":7361,"bles":7362,"col":7363,"mas":7364,"phat":7365,"Ġwars":7366,"Ġbatt":7367,"Ġpil":7368,"Ġpoured":7369,"verse":7370,"Ġstocks":7371,"ĠBall":7372,"ĠBook":7373,"ĠBird":7374,"elcome":7375,"ĠJam":7376,"ifty":7377,"Ġjoke":7378,"ĠKn":7379,"Ġdidnt":7380,"Ġflame":7381,"oyage":7382,"weet":7383,"ĠStep":7384,"ERS":7385,"Ġimpress":7386,"Ġimplement":7387,"Ġstandard":7388,"ĠJudge":7389,"Ġfreeze":7390,"mony":7391,"Ġoperating":7392,"ĠClub":7393,"Ġcere":7394,"Ġpositive":7395,"iju":7396,"ĠPlay":7397,"ĠAssociation":7398,"Ġbeauty":7399,"Ġlyrics":7400,"Ġholes":7401,"Ġremembered":7402,");":7403,"Under":7404,"ucha":7405,"vior":7406,"Ġbom":7407,"Ġmal":7408,"Ġfurn":7409,"Ġdudes":7410,"Ġhen":7411,"keep":7412,"adium":7413,"Ġmyster":7414,"ĠCall":7415,"ĠGive":7416,"oph":7417,"Ġdoeth":7418,"Ġvast":7419,"udd":7420,"assador":7421,"Ġloyal":7422,"Ġtwist":7423,"Ġscrew":7424,"Ġshouldn":7425,"ograp":7426,"Ġnevertheless":7427,"Ġresurrection":7428,"Ġpolic":7429,"Ġfamine":7430,"Ġnorm":7431,"Ġdecisions":7432,"Ġstayed":7433,"Ġelev":7434,"Ġmilk":7435,"Ġobv":7436,"Ġruler":7437,"Ġfrequ":7438,"Ġhoping":7439,"Ġdeclined":7440,"Ġflex":7441,"Ġremaining":7442,"ĠTechn":7443,"Ġorders":7444,"Tryna":7445,"rrrr":7446,"Ġrejo":7447,"Ġcompletely":7448,"Ġinfluence":7449,"ĠAfghanistan":7450,"Ġdescribed":7451,"IO":7452,"sn":7453,"uate":7454,"Ġtheres":7455,"Ġdies":7456,"Ġyay":7457,"Ġgif":7458,"Ġgird":7459,"ĠIN":7460,"icon":7461,"ĠTown":7462,"ĠBush":7463,"Ġ($":7464,"rip":7465,"ĠFederal":7466,"Ġdebt":7467,"Ġsoci":7468,"ĠElect":7469,"Ġpled":7470,"Ġsup":7471,"arer":7472,"many":7473,"Straight":7474,"Ġimpossible":7475,"Ġrelax":7476,"heads":7477,"Ġrefused":7478,"Ġsmaller":7479,"Ġvictim":7480,"Ġcovering":7481,"ĠPoland":7482,"Ġstretched":7483,"Ġmobile":7484,"Ġcabin":7485,"Ġconfirmed":7486,"Bitches":7487,"SSW":7488,"UC":7489,"count":7490,"found":7491,"lar":7492,"vis":7493,"Ġtrespass":7494,"Ġsilly":7495,"Ġcoc":7496,"Ġfed":7497,"Ġlane":7498,"achel":7499,"entially":7500,"imum":7501,"Ġrecomm":7502,"ĠSoc":7503,"lying":7504,"ĠLo":7505,"ĠGad":7506,"ĠGilead":7507,"ĠJared":7508,"ĠPuff":7509,"Ġshell":7510,"Ġbrings":7511,"Ġbrains":7512,"Ġletters":7513,"days":7514,"Ġshoulders":7515,"Ġ2010":7516,"Ġwatched":7517,"Ġhardly":7518,"Ġdeport":7519,"phone":7520,"Ġwaist":7521,"Ġdecade":7522,"Ġtrail":7523,"ĠArgent":7524,"Ġairport":7525,"Ġexperts":7526,"Ġtempor":7527,"ARE":7528,"onym":7529,"Ġdivide":7530,"Ġpositions":7531,"Ġyesterday":7532,"ĠPrince":7533,"Ġrepentance":7534,"Ġteachers":7535,"ĠAssyria":7536,"Ġindividual":7537,"Ġsqueeze":7538,"Ġharpoone":7539,"ĠLebanon":7540,"ijuana":7541,"Dallas":7542,"Fore":7543,"mate":7544,"sw":7545,"tw":7546,"zens":7547,"Ġhills":7548,"idering":7549,"Ġeuro":7550,"ching":7551,"three":7552,"raft":7553,"ĠDu":7554,"Ġaltern":7555,"Ġplate":7556,"ource":7557,"ella":7558,"Ġsomewhere":7559,"ends":7560,"Ġresol":7561,"enses":7562,"Ġendure":7563,"Ġindic":7564,"Ġmonster":7565,"Ġmostly":7566,"Ġholdin":7567,"Ġcutting":7568,"ĠCompton":7569,"Ġpresidents":7570,"ikes":7571,"Ġoperation":7572,"Ġconsumed":7573,"ĠApple":7574,"Ġimmigrants":7575,"Ġpartnership":7576,"Ġiniti":7577,"ĠMueller":7578,"Ġcitizens":7579,"Ġappreci":7580,"Aut":7581,"Huh":7582,"Nep":7583,"Red":7584,"eem":7585,"first":7586,"ivery":7587,"nes":7588,"itz":7589,"Ġmethod":7590,"edient":7591,"Ġdun":7592,"Ġdying":7593,"Ġtoast":7594,"Ġthirst":7595,"igation":7596,"Ġhavin":7597,"ĠHRs":7598,"Ġdozen":7599,"Ġmane":7600,"ĠKir":7601,"ĠKurd":7602,"ĠKansas":7603,"Ġflows":7604,"Ġprime":7605,"ĠVan":7606,"Ġwherewith":7607,"Ġworlds":7608,"Ġfeelings":7609,"Ġowner":7610,"Ġconsult":7611,"Ġdepth":7612,"Ġeaten":7613,"Ġnumerous":7614,"Ġburden":7615,"Ġprayed":7616,"Ġdrinking":7617,"Ġsalt":7618,"Ġmarried":7619,"enez":7620,"Ġsoldier":7621,"Many":7622,"Ġrisks":7623,"zzar":7624,"Ġprisoners":7625,"Ġfacing":7626,"ĠSamaria":7627,"Ġforgotten":7628,"Ġordin":7629,"atinum":7630,"Ġidols":7631,"Ġtelevision":7632,"Ġprofessional":7633,"Ġculture":7634,"brethren":7635,"offee":7636,"Love":7637,"RA":7638,"Te":7639,"Ġtur":7640,"Ġtap":7641,"Ġpersec":7642,"Ġhitting":7643,"Ġbein":7644,"Ġstiff":7645,"ĠShi":7646,"ĠSchool":7647,"Ġrally":7648,"ĠMedic":7649,"ĠBoth":7650,"Ġancient":7651,"estyle":7652,"ĠFound":7653,"useum":7654,"Ġagree":7655,"neither":7656,"ubs":7657,"ubble":7658,"ava":7659,"ishing":7660,"Ġwriter":7661,"Ġheadqu":7662,"Ġ86":7663,"Ġkiller":7664,"ibs":7665,"Through":7666,"Ġ05":7667,"Ġraps":7668,"ĠSpanish":7669,"withstanding":7670,"Ġdrawn":7671,"Ġfunding":7672,"Ġinnovation":7673,"Ġrevenue":7674,"Ġkilom":7675,"ĠPutin":7676,"owntown":7677,"MC":7678,"aith":7679,"case":7680,"rous":7681,"sen":7682,"sight":7683,"Ġay":7684,"erk":7685,"Ġbass":7686,"Ġmock":7687,"Ġcous":7688,"Ġfile":7689,"alom":7690,"ĠBang":7691,"Ġ125":7692,"emen":7693,"ĠDistrict":7694,"Ġtrash":7695,"others":7696,"aved":7697,"Ġscand":7698,"been":7699,"Ġresources":7700,"Ġ68":7701,"ĠYour":7702,"Ġdesert":7703,"Ġdeserve":7704,"Ġappoint":7705,"Ġapolog":7706,"Ġframe":7707,"ĠAmen":7708,"Ġdrivers":7709,"ESE":7710,"Ġthrowing":7711,"Ġcorners":7712,"ĠQueens":7713,"Ġapproved":7714,"Ġforgot":7715,"Ġexceeding":7716,"Ġsmokin":7717,"Ġappearance":7718,"Cloudy":7719,"ĠBaal":7720,"Ġninth":7721,"Ġtournament":7722,"ĠIshmael":7723,"92":7724,"DA":7725,"Little":7726,"cow":7727,"free":7728,"Ġsouthern":7729,"rete":7730,"Ġwoo":7731,"Ġbite":7732,"onement":7733,"orial":7734,"encies":7735,"Ġloo":7736,"lech":7737,"Ġhack":7738,"Ġease":7739,"stances":7740,"Ġmelt":7741,"ĠRay":7742,"these":7743,"Ġhasn":7744,"Ġsmooth":7745,"Ġmayest":7746,"hole":7747,"Whatever":7748,"Thursday":7749,"Ġproposed":7750,"Ġdiscovered":7751,"Ġwindows":7752,"Ġobtain":7753,"Ġbarrel":7754,"Ġposted":7755,"ĠExec":7756,"Ġescaped":7757,"Ġgrip":7758,"Ġfamiliar":7759,"Ġexcited":7760,"Ġdocuments":7761,"ĠRyan":7762,"ĠSeptember":7763,"ONDON":7764,"ĠHollywood":7765,"ĠSecretary":7766,"Des":7767,"PH":7768,"Town":7769,"UF":7770,"sac":7771,"uj":7772,"uous":7773,"Ġess":7774,"Ġties":7775,"Ġtents":7776,"rer":7777,"anes":7778,"arry":7779,"aylor":7780,"ĠAnaheim":7781,"Ġitems":7782,"Ġliveth":7783,"Ġshown":7784,"Ġallows":7785,"ĠRus":7786,"Ġprosecutors":7787,"Ġ56":7788,"Ġcompre":7789,"achus":7790,"Ġsmitten":7791,"____":7792,"!),":7793,"Step":7794,"Ġbringeth":7795,"harm":7796,"Ġsinging":7797,"Ġinstit":7798,"Ġbreaks":7799,"chain":7800,"ĠManagement":7801,"Also":7802,"Ġhumble":7803,"Ġpresented":7804,"Ġwitnesses":7805,"ĠCompany":7806,"Ġfiend":7807,"Market":7808,"ĠClinton":7809,"ĠPremier":7810,"ĠKurdish":7811,"NOT":7812,"Sing":7813,"Wait":7814,"cong":7815,"ege":7816,"hos":7817,"vy":7818,"instein":7819,"rec":7820,"Ġmax":7821,"Ġpipe":7822,"Ġna":7823,"ĠSystem":7824,"Ġrat":7825,"ĠLib":7826,"ceive":7827,"ores":7828,"Ġasleep":7829,"ĠPri":7830,"unger":7831,"ument":7832,"ĠFlynn":7833,"Ġconflict":7834,"Ġbutter":7835,"Ġvice":7836,"Ġuncertain":7837,"Ġdeploy":7838,"Ġ141":7839,"Ġforest":7840,"Ġcurious":7841,"Ġcraft":7842,"Always":7843,"Ġprotests":7844,"Ġtouching":7845,"Ġsanctions":7846,"Ġseventy":7847,"Ġoptim":7848,"ĠGolden":7849,"Ġprophesy":7850,"Ġconversation":7851,"ĠCapitol":7852,"Ġjuice":7853,"ĠPuerto":7854,"David":7855,"Ġkitchen":7856,"LONDON":7857,"Nike":7858,"whale":7859,"Ġmol":7860,"Ġdump":7861,"sters":7862,"ircum":7863,"ĠShan":7864,"illah":7865,"Ġupright":7866,"abbit":7867,"ĠRa":7868,"Ġvirt":7869,"ĠKo":7870,"ĠKnight":7871,"Ġotherwise":7872,"Ġtells":7873,"Ġsinger":7874,"Ġtreas":7875,"Ġgrabb":7876,"ĠShow":7877,"Ġfacts":7878,"intend":7879,"Plenty":7880,"Ġriding":7881,"Ġinnings":7882,"Which":7883,"Ġidentified":7884,"Ġconvicted":7885,"Ġgentlemen":7886,"ĠVietnam":7887,"EALTH":7888,"Ġdemonstr":7889,"Welcome":7890,"dis":7891,"pired":7892,"rant":7893,"rors":7894,"world":7895,"Ġmaid":7896,"Ġfancy":7897,"Ġge":7898,"acris":7899,"rove":7900,"ĠCare":7901,"ĠPenn":7902,"ĠHEALTH":7903,"Ġaren":7904,"ĠEv":7905,"Ġplague":7906,"Ġsuicide":7907,"ĠKelly":7908,"Ġloving":7909,"Ġarch":7910,"never":7911,"Ġthrown":7912,"ointing":7913,"oving":7914,"Ġharp":7915,"Ġembr":7916,"ĠAsh":7917,"Ġexpressed":7918,"Ġplanet":7919,"Ġplanning":7920,"Ġsending":7921,"Ġawa":7922,"Ġrevolution":7923,"iffs":7924,"ĠExchange":7925,"earth":7926,"Ġdevils":7927,"Phone":7928,"Ġmixed":7929,"Ġobserve":7930,"Ġresponsible":7931,"Ġchariots":7932,"ĠTaliban":7933,"folio":7934,"Ġinnocent":7935,"400":7936,"Egypt":7937,"ga":7938,"lings":7939,"lights":7940,"uated":7941,"wl":7942,"Ġx":7943,"Ġsittin":7944,"Ġwoah":7945,"Ġop":7946,"Ġpunch":7947,"Ġder":7948,"leans":7949,"ĠAR":7950,"ĠAha":7951,"Ġegg":7952,"amer":7953,"Ġwearing":7954,"Ġrail":7955,"ĠDirty":7956,"respect":7957,"Ġalert":7958,"ĠEle":7959,"Ġblazin":7960,"Ġlets":7961,"ĠStand":7962,"Ġenhan":7963,"Ġprefer":7964,"Ġassess":7965,"ensions":7966,"Ġpreserve":7967,"otted":7968,"Ġinsane":7969,"Ġ159":7970,"Ġwhaling":7971,"Ġproviding":7972,"Ask":7973,"Ġrefer":7974,"ĠEgyptians":7975,"Ġmarijuana":7976,"Ġsucker":7977,"ĠOrleans":7978,"Ġteacher":7979,"Ġbehavior":7980,"ĠDarling":7981,"Ġdedicated":7982,"Ġphotos":7983,"Ġprimary":7984,"Ġdomestic":7985,"Ġkilometers":7986,"BS":7987,"Drop":7988,"Que":7989,"Ste":7990,"TV":7991,"rine":7992,"Ġ~":7993,"itary":7994,"Ġfir":7995,"ĠIra":7996,"ĠCD":7997,"ĠCad":7998,"ĠLove":7999}