#version: 0.2
Ġ t
h e
Ġ a
i n
Ġt he
č Ċ
Ġ s
r e
n d
Ġ w
Ġ o
e r
h a
o u
Ġ b
i t
Ġ m
o n
Ġ c
Ġ f
o r
i s
l l
e s
Ġa nd
in g
e n
e d
Ġo f
Ġ p
Ġ d
a n
Ġt o
Ġ l
Ġ in
a t
a r
Ġ y
Ġ g
Ġ I
Ġ n
a s
o m
ha t
Ġ h
i c
e t
o w
o t
u s
Ġy ou
l e
a y
Ġt h
u t
Ġ he
Ġb e
a l
i g
i d
v e
Ġt hat
Ġ A
Ġ u
Ġ ha
Ġ e
Ġ it
l d
k e
a c
Ġo n
a m
i on
en t
i m
Ġ re
s e
Ġf or
r o
v er
it h
s t
i r
Ġs t
a d
Ġ T
' s
Ġ S
Ġ is
Ġm e
h t
Ġw ith
u r
i ll
n t
Ġw e
o o
l y
Ġm y
Ġw h
Ġ r
Ġ C
Ġl i
he r
Ġ M
Ġ B
c h
Ġ k
i l
Ġ L
e l
Ġw as
Ġ (
t h
Ġthe y
a nd
c k
a ll
c e
Ġs e
ig ht
' t
o re
Ġa s
Ġu p
t er
Ġh is
Ġ 1
a in
Ġs a
Ġ G
ĠA nd
Ġs h
o p
er s
Ġa t
r i
Ġa n
Ġa ll
Ġn ot
' m
om e
es t
Ġ J
r om
c t
Ġ P
Ġ W
es s
at ion
he n
Ġs ha
i f
us t
e m
u n
o d
r a
Ġ 2
Ġ D
Ġ H
Ġn e
Ġ N
Ġli ke
Ġy e
o l
Ġ j
Ġth is
Ġyou r
Ġf rom
am e
Ġthe m
ou ld
ac k
u m
e p
Ġsa id
Ġu nt
or d
a g
an t
T he
p e
a b
a h
Ġd o
Ġo ut
Ġ F
a ke
Ġ R
Ġh im
Ġha ve
re s
i e
Ġk n
re d
on e
Ġg o
ar t
ou g
u l
Ġd e
Ġb y
a k
Ġunt o
as t
Ġsha ll
o s
Ġa re
Ġm an
Ġs o
p p
Ġc om
ou t
us e
Ġc on
u ck
Ġb ut
ic h
i ve
Ġg et
on g
Ġa l
at e
is t
Ġ v
ig g
ow n
Ġs ay
Ġthe ir
Ġ E
Ġc an
ha n
ĠT he
v en
Ġw ill
Ġp l
A nd
ou r
Ġl e
Ġt r
Ġp ro
Ġwh o
i es
q u
in e
u d
oo k
ic k
Ġkn ow
Ġw hen
ar d
a use
a p
it y
Ġo r
ou nd
Ġn o
Ġha d
or t
t o
Ġg ot
t he
oo d
Ġwh ich
e ll
Ġthe re
ic e
Ġ O
Ġ "
h i
Ġa b
Ġof f
Ġw hat
g e
Ġs p
Ġon e
Ġhe r
as s
Ġe x
Ġwe re
Y ou
ver y
id e
Ġs u
O R
ou s
Ġ K
in d
o ld
m ent
Ġp e
Ġs he
Ġl o
Ġa g
Ġw or
et h
Ġb l
Ġn igg
f ore
im e
ac e
f e
oug h
Ġb r
ing s
Ġ 3
Ġ '
OR D
Ġj ust
Ġd on
Ġf e
o st
Ġc l
re n
Ġ us
op le
r y
s o
ĠG od
ot her
o nd
Ġd own
Ġa f
Ġ if
it t
Ġa r
Ġn ow
Ġm ore
er se
ĠL ORD
0 0
he re
u g
n e
Ġd ay
i v
i re
Ġ ro
Ġpe ople
n a
Ġt w
Ġ U
Ġse e
Ġag ain
u b
p t
Ġo ver
Ġd id
i p
a re
re at
ar s
Ġb ack
Ġha s
in k
Ġf l
V erse
Ġab out
Ġin to
c c
u e
Ġt ime
an s
u re
Ġs ome
Ġbe en
re e
Ġth ou
t her
Ġa m
it e
ar k
all y
Ġg r
w ay
i a
se l
ad e
o se
Ġp r
a v
Ġc ome
Ġm ake
ur n
o f
Ġc ame
Ġs c
Ġt han
b er
Ġaf ter
Ġa in
o k
Ġth y
c ause
o ck
Ġe very
Ġth r
ou nt
B ut
Ġl et
p er
Ġt e
Ġw ould
0 1
a w
o y
i z
u ll
Ġha nd
ion s
h or
is h
Ġal so
I t
Ġ 5
w e
Ġ 4
ĠS t
Ġc ha
at her
Ġa d
Ġthe n
Ġp er
Ġcom p
Ġo ur
i al
c l
b e
Ġ ke
Ġf uck
e nd
res s
e w
oug ht
ig n
d ay
an ce
as e
Ġup on
al k
Ġ en
Ġr ight
Ġ hat
ĠI s
ou se
t s
o ll
Ġtw o
he d
ir st
Ġc h
Ġsh it
Ġc ould
f f
Ġthe se
ac h
nd er
Ġw ay
is e
Y e
Ġe ven
Ġnigg a
Ġs on
Ġu n
n ess
an g
ag e
Ġbe fore
ig h
Ġc all
m er
Ġre p
Ġp ass
Ġh ow
h is
Ġthe e
o b
Ġb it
. .
Ġl ook
Ġ V
i le
Ġo ther
Ġsh ould
o in
n ing
ation s
' ll
Ġw here
ĠH e
n g
Ġ qu
1 0
a ve
b le
Ġs pe
o g
Ġc r
um p
Ġ 7
he s
Ġcon t
Ġs m
y e
Ġm ade
c om
Ġs l
at h
Ġ im
Ġan y
er v
t y
Ġf irst
Ġw ant
Ġp art
or s
one y
1 1
W e
en ce
at ed
Ġt ake
Ġl and
ar y
f t
od y
l es
is s
Ġwor k
Ġpl ay
S o
Ġnigg as
ac t
Ġa cc
Ġne w
as h
Ġthr ough
Ġp re
Ġagain st
f or
h old
hor us
, "
Ġit s
Ġne ver
o v
Ġc hi
a il
C horus
Ġcom m
Ġb et
o ve
Ġp ut
ĠB ut
id ent
. "
H e
w n
ĠC h
Ġk ing
Ġg ood
Ġb re
Ġw r
Ġw ord
e e
Ġchi ld
p s
' re
ra el
Ġre s
o c
ir l
Ġd is
sel f
ot h
Ġlo ve
i ld
Ġ2 01
p l
Ġli fe
Ġm ay
ic t
1 2
i ed
Ġw at
Ġ 6
Ġne ed
Ġke ep
1 3
Ġm en
Ġst r
m an
Ġu nder
ab le
Ġth ink
ĠF or
Ġe ar
Ġre m
in ess
Ġth ings
o h
Ye ah
Ġha r
% ;
ab y
Ġbe cause
ct ion
Ġh ouse
A P
Ġas s
Ġg reat
Ġhe ad
1 4
u ch
ĠIs rael
ĠL ord
Ġ 8
Ġhe re
Ġwor ld
w ard
or y
Ġon ly
or n
Ġl ast
u p
et s
oo l
_ _
Ġtr y
Ġfe el
e ver
an c
h y
i ous
I n
1 5
Ġre c
at es
ul t
Ġm oney
Ġse c
u nd
t ain
v es
Ġg ive
C ause
on s
Ġst ill
Ġh igh
en s
ow er
us iness
Ġman y
i x
! )
Ġn ame
Ġc o
i an
itt le
Ġhat h
r u
Ġm ight
on t
Ġye ar
Ġs in
Ġd r
Ġt ell
h o
Ġchild ren
Ġw ent
T hat
Ġ Y
a z
l ic
Ġg l
ad y
l ed
os s
a ug
an na
t e
Ġa way
2 0
ou th
Ġl ong
ent s
Ġm other
Ġth ree
Ġr un
g et
Ġye ars
ĠT h
Ġd es
Ġbit ch
1 6
Ġs w
Ġe nd
Ġo wn
Ġg irl
2 3
Ġb u
1 8
it es
Ġg on
ĠB e
M y
ĠI n
N ow
it ies
S t
t a
Ġc han
Ġl aw
2 4
Ġw anna
ver s
v ing
Ġbe l
l and
Ġs erv
w w
Ġp res
Ġl ittle
a le
d u
Ġth ose
Ġh o
1 7
Ġat t
W hat
es day
Ġbe g
Ġk ill
Ġsay s
Ġhe art
The y
t ing
Ġto o
Ġ 9
Ġle ad
o ot
Ġn ight
) ,
Ġsh ow
Ġye ah
1 9
Ġre al
it ion
Ġc ount
Ġt urn
Ġe v
i ke
Ġsay ing
Ġe m
ĠA l
e g
T his
Ġhar d
b ody
ĠT r
Ġ &
Ġt alk
Ġm uch
i ly
it her
am p
I f
l t
Ġs et
e ct
k s
re am
Ġb aby
2 2
Ġ Z
ĠI t
Ġt ri
Ġf ather
Ġ1 0
pe ct
Ġg u
ak ing
ve l
im es
ic al
n y
Ġa pp
Ġc ity
2 1
f uck
am es
Ġy a
s s
Ġg ame
p en
E R
Ġf our
aug ht
3 0
Ġ Ġ
Ġe ver
Ġh ome
Ġin d
Ġc ar
al s
ord ing
Ġst art
Ġam ong
v ed
Ġwh ile
Ġth ing
Ġcon s
Ġs un
Ġm on
us s
Ġbr ing
c ed
Ġp ol
Ġar ound
2 5
ĠN ew
m in
u nt
Ġin v
l ess
ill ion
Ġc he
e c
Ġrep ort
Ġs ame
f ul
it s
for m
Ġm ark
Ġday s
W hen
Ġb o
Ġre t
I N
Ġst op
Ġf in
a i
Ġim p
ant s
H ook
Ġhe ar
ou d
n er
Ġhe l
Ġbe hold
Ġan other
i b
Ġw om
c es
Ġd one
it ed
as on
a id
in s
Ġf ace
Ġa ct
O N
m e
Ġ1 9
ĠL e
Ġwh y
at ch
Ġto ok
Ġcomp an
Ġs k
Ġbe ing
le ase
Ġo ld
er n
Ġw ar
ĠU n
Ġc ap
Ġst and
Ġsu pp
ot t
Ġbet ter
ub lic
Ġword s
er ing
Ġto ld
x t
oin t
cl ud
Ġl ight
Ġpl ace
ment s
Ġp ri
an k
re w
Ġd el
c hes
a red
at t
at s
g ed
ar ch
Ġr a
Ġb oy
Ġm ost
ou l
ter s
op e
oll ow
O h
c ent
ha r
ro p
Ġwe ll
in es
at ing
.. .
ou n
Ġf ound
Ġin s
Ġcha r
c i
Ġc ause
c y
e k
y es
in a
ir d
Ġs om
ĠA s
Ġw on
Ġnot h
2 6
Ġle ft
Ġh it
Ġ very
Ġf am
ation al
S he
Ġad d
' ,
Ġhe ard
u h
b s
ou p
Ġm in
Ġsha lt
Ġsu ch
r ow
Ġj ud
l ing
Ġacc ording
Ġcall ed
m a
o ke
Ġhel p
A ll
i er
Ġst re
r ic
Ġh old
ĠTr ump
Ġin clud
Ġbel ie
Ġf ull
y s
Ġ ent
u res
' ve
I nt
2 7
00 0
Ġs ent
Ġear th
Ġmother fuck
r ist
Ġin ter
d er
Ġfor th
Ġte am
Ġa p
Ġf ire
g y
ĠT hen
Ġb ro
u al
Ġas k
Ġs ign
or k
p r
mer ic
Ġre ally
o ice
t on
Ġf r
Ġn or
ri ed
Ġ1 3
e f
Ġoff ic
g r
m s
Ġm ust
as ed
t hat
Ġo pen
th ing
e red
at er
ĠA m
Ġw alk
t t
ri end
Ġ $
Ġwith out
Ġin c
Ġ1 5
Ġgo ing
s h
Ġli ve
u ff
Ġm ind
way s
Ġf all
T o
ot e
el s
Ġcomm and
Ġhand s
Ġe yes
Ġde ad
Ġp ower
em ent
Ġc le
us h
if e
ie w
N o
ur ing
z y
2 8
Ġgot ta
Ġc our
Ġth ought
n ow
Ġmon th
i ah
Ġto p
Ġs ur
Ġw in
Ġre st
Ġre g
e x
m ed
Ġd ep
p h
ver n
Ġ1 4
m b
Ġd ri
g er
ot s
Ġb usiness
i ver
Ġwho le
Ġsec ond
Ġy et
Ġsa w
T h
ĠN ow
pp ed
ic s
a ven
l f
Ġ 0
Ġs ide
Ġde ath
Ġsa ith
um b
Ġsin ce
o or
Ġbr ought
es us
Ġ2 0
Ġc ut
b r
Ġper cent
Ġw ha
ĠD av
ie ld
et er
E S
Ġw a
get her
Ġa c
Ġc are
/ /
Ġm ine
: //
i o
Ġyou ng
ow s
m p
ro ss
st and
Ġpro p
Ġb est
Ġus ed
Ġth ough
Ġde c
ĠA meric
Ġse en
Ġr ap
n ed
Ġf ind
Ġb oth
Ġro ck
ur s
Ġ -
Ġy o
Ġe at
Ġt ak
Ġsom eth
und red
Ġf ollow
Ġson s
j ect
c er
c ome
sel ves
en er
G et
Ġgo vern
Ġf a
Ġha st
is ion
2 9
Ġb ad
Ġre l
m y
at ter
Ġp op
Ġpro v
ol og
Ġs oul
ĠB r
3 1
Ġde f
Ġdis c
Ġb ig
Ġf ive
Ġg un
un k
Ġst ate
ĠJ esus
y st
Ġne xt
Ġspe ak
d om
ha ll
hi p
ĠCh rist
an e
ut e
2 01
n ot
Ġd est
Ġne ar
oh n
O n
ĠDav id
on es
B e
Ġst ay
ie f
ud e
d y
F or
is hed
Ġbl ack
Ġs er
Ġin t
ĠThe re
Ġunt il
re st
Ġwat ch
Ġf ore
c hed
Ġd ie
Ġ1 2
al th
f l
Ġme an
ri b
it ch
Ġmark et
Ġha pp
Ġwat er
i ven
am a
Ġs ix
we en
D on
Ġ You
Ġm iss
Ġh ot
Ġ Q
ic es
Ġ1 1
ĠW e
is ed
ĠJ er
Ġle ave
Ġo h
Ġse em
201 8
n esday
ed nesday
ick ed
i ble
ĠS o
ĠM os
Ġthere fore
Ġto gether
re nt
Ġro ll
Ġe le
Ġr ound
ĠThe y
Ġm illion
__ _
g es
Ġg ave
Ġpro du
Ġret urn
Int ro
Ġs le
re t
Ġs we
ous and
Ġm ed
U h
h il
Ġ1 8
is on
Ġbl ood
Ġnoth ing
i red
Ġa ut
ĠS p
Ġk id
e ch
ha b
e v
fe ct
W ith
N igg
Ġn um
Ġh undred
Ġst ra
J ust
Ġst at
Ġs ing
Ġf ight
Ġt ra
Ġex p
Ġm ove
Ġbet ween
Ġt re
in n
Ġl ot
ĠA r
Ġye a
Ġad v
s ide
' d
Ġin st
th ren
ĠI m
res ident
Ġc ur
Ġha lf
en se
Ġg one
Ġbre ak
Ġgr ow
Ġbu ild
i am
Ġbe at
Ġf riend
ĠW h
w ith
Ġm om
Ġm ov
Ġbr other
S h
Ġp ers
Ġ1 6
iz e
u esday
Ġhim self
Ġgon na
Ġcompan y
Ġm id
Ġd if
iz ed
Ġf ar
ch ool
Ġp ay
Ġstr ong
Ġre ce
ĠC om
Ġw ild
Ġinv est
c ial
Ġw it
ain s
b y
Ġcon f
Ġar t
us ed
Ġpres ident
b out
A N
3 2
Ġsh oot
L et
l et
r ight
s on
ale m
Ġb ur
Ġsu b
ne w
am n
Ġal ways
Ġle g
ĠS he
Ġan s
Ġw he
Ġb ody
Ġme et
i qu
Ġde v
en ed
Ġhe aven
Ġpr ay
em ber
ye ar
c ha
Ġm outh
Ġt imes
a x
us alem
Ġth ousand
ĠM an
Ġt er
ĠJ ud
Ġm or
Ġf ree
c on
ir it
un g
ce pt
ent y
ĠW ednesday
Ġpl an
Ġw ind
A s
3 3
est s
ac es
W ho
i pp
Ġ use
he ad
Ġst e
ist s
Ġtr ans
t in
Ġwh ite
Ġde al
Ġ201 8
il t
ĠJ e
Ġm il
Ġp oss
Ġv is
Ġwh om
Ġcont in
it al
B r
Ġsometh ing
G ot
oin ts
Ġf ly
F uck
a ul
ĠF r
ĠP resident
ĠR ep
Ġrec ord
o ver
Ġbre thren
Ġbelie ve
or th
is ter
E N
ww w
Ġc ra
Ġg ra
Ġst ep
Ġd ream
ĠC ha
u es
Ġk ind
ond ay
Ġse a
Ġbeg an
Ġf ell
iv es
m on
ut ion
p le
Ġm ult
Ġl ist
Ġo pp
ĠJ ohn
Ġb all
as ter
Ġl ow
Ġwom en
ro y
ĠBe hold
am an
O ut
Ġm ak
Ġv oice
ĠN ep
ĠA f
c le
os ed
ĠT uesday
Ġcount ry
ĠC ar
L ike
Ġg iven
T hen
Ġa ir
Ġ1 7
Ġp rom
at ive
if ic
Ġgo ld
Ġh om
ne y
ul ar
Ġu h
att le
gy pt
a j
Ġne ither
ire ct
w ire
Ġ Ye
Ġ =
Ġ5 0
il ity
E very
Ġthere of
Ġchan ge
Ġap pe
ĠW hat
Ġdr ink
re en
es h
w h
Ġan n
Ġse ason
Ġsu re
Ġe ach
ĠT hat
Ġwe ek
Ġgovern ment
ĠA b
Ġp oints
Ġoffic ial
Ġd ra
Ġd uring
Ġdo es
Ġcom ing
r on
Ġs chool
ĠY ork
? )
he t
ĠM ar
e b
ĠB l
Ġkn own
Ġte ch
i ent
Ġinclud ing
Ġs al
if ied
ĠW est
Ġ2 4
Ġbl ock
Ġwa it
Ġl ine
Ġget ting
ĠMos es
Ġg ener
Y o
l in
t ed
ĠT his
Ġc ry
Ġth ine
Ġsh ot
ĠJer usalem
s hall
m en
- -
ur y
yst em
d e
ĠM onday
Ġre f
v in
ore d
ain ed
ard s
Ġe l
Ġpe ace
Ġwha le
ĠI f
new s
Ġd at
Ġo b
Ġm ur
ist r
c ess
Ġsh ip
A l
I s
Ġc ast
The re
A C
Ġd aught
hi le
Ġpol ice
H ow
U S
Ġc oll
Ġfe et
Ġp ast
Ġl ar
p c
ĠR e
ĠUn ited
Ġd ou
Ġd w
Ġunder stand
3 4
Ġp ull
ag es
e ous
om in
Ġkn ew
ce ed
Ġs ound
Ġt est
Ġl ay
Ġev il
Ġlo c
ha m
ash ing
Ġex t
Ġre ady
Ġche ck
a ir
Ġfe ar
Ġnum ber
Ġth us
I C
ĠE gypt
Ġsp ok
Ġdid n
z e
A L
an a
Ġth ird
the m
Ġse ven
m ber
ĠB en
Ġdif fe
o e
Ġc ond
ut h
Ġh tt
ent ion
ort s
Ġfuck in
u red
iv ed
of f
Ġstra ight
re ady
id es
Ġm ount
Ġfe w
y ing
ir ty
ack s
Ġtak en
ĠS e
Ġre lease
Ġex pect
Ġfl ow
i k
i vers
Ġfather s
ur ity
er tain
Ġfam ily
Ġpers on
a f
d en
o on
He y
Ġfr ont
Ġtech n
ĠF l
Ġm er
Ġgirl s
Ġs ol
Ġm ar
Ġde ep
itt en
i or
u el
Ġr hy
Ġan g
Ġt ou
Ġp h
Ġp ress
ĠN o
Ġen ough
en cy
ick s
A T
Out ro
Ġon ce
Ġ2 5
p ed
Ġbl ow
ĠI nd
Ġh ope
im s
ĠS outh
IN G
S ome
Ġm us
or m
Ġd em
Ġd ark
Ġha ving
Ġst ud
ĠD e
Ġlo st
ĠG r
r al
Ġex per
Ġb urn
ill s
Ġr ul
Ġcl oud
Ġbit ches
h ind
re ad
an ge
Ġdest roy
Ġw all
Ġp ur
Ġle ar
g th
as k
Ġw ife
Ġb ull
ĠA n
ĠJud ah
m ost
Ġpr ot
Ġsun ny
A S
g ing
Ġp ublic
Ġpro f
u ally
i ol
Ġc ase
Ġh ost
g h
Ġm et
Ġf ast
ĠA ll
ĠR uss
Ġcl ub
Ġsm all
3 5
ĠN orth
Ġpre v
Ġlook ing
g o
Ġmor ning
L ook
Ġtry ing
Ġs il
Ġre qu
ri es
ĠE l
T H
el t
i ans
l a
Ġ ill
en e
Ġr ain
Ġl a
Ġs ong
ĠC al
or on
ar ter
C an
Ġt em
unt o
u ro
ill ed
the y
Ġfa ith
3 6
Ġoff ering
Ġinc re
Ġc ent
Ġh ur
u c
Ġw ond
Ġw icked
i ence
Ġst ri
Ġin form
Ġal ready
Ġgr oup
g an
Ġto ward
i et
Ġh our
A R
c o
Ġthem selves
h ome
Ġpart y
Ġp ain
Ġp oint
ĠW here
Ġsp ake
vel op
ĠP hil
Ġthr ow
Ġnew s
Ġhe alth
Ġbe hind
Ġind ust
Ġse nd
Ġho es
Ġh ood
Ġr ide
Ġwom an
im p
Ġd rop
Ġqu ick
Ġsle ep
at ic
al d
Ġcour t
Ġf act
Ġse x
amp a
Ġkill ed
ren ce
ob al
Ġc a
Ġsa ve
ĠS ha
l er
ed er
Ġp le
Ġe ight
Ġfor mer
C h
O ne
w o
re m
Ġch ief
ag ue
Ġdon t
b usiness
t ime
Ġsh ort
y y
Ġhat e
Ġwr ong
y ri
ĠG u
Ġcl ose
Ġb ar
Ġwhe ther
es e
Ġsupp ort
Ġt y
Ġs it
re g
Ġdo or
Ġ3 0
ate ly
Ġs n
Ġbl ess
Ġso ld
ug g
oc r
olog y
ashing ton
t il
w it
Ġ es
Ġex pl
) .
aman ites
ĠC ol
business wire
3 7
2018 0
h im
Ġoff er
Ġm od
Ġf re
ent ly
ĠK ore
ĠH ouse
Ġevery thing
or ld
Ġs ystem
Ġb ott
on y
Ġd ied
min em
k en
Ġ est
Ġn one
ab ly
Ġo per
Ġturn ed
ĠĠ Ġ
R e
Ġb ook
Ġc op
ĠC l
Ġso on
ĠAl ice
M an
y le
Ġf un
S ee
in ce
Ġqu est
Ġp lease
Ġre ad
Ġsee k
Ġc or
ill e
ust om
? "
Ġt en
Ġf il
Ġhe ll
ĠJ ose
Ġpre p
im in
Ġsl ow
Ġc e
Ġk ings
ĠH ow
id er
ĠS h
Ġright eous
Ġd irect
Ġra pp
I S
is m
Ġdo ing
Ġd ist
ight s
itt ing
Ġgr ound
Ġr is
ĠD on
Ġtr ue
pt ion
Ġdep art
Ġ ed
Ġre d
Ġwho se
Ġm aking
Ġis s
W hy
at ur
Ġbe come
w here
Ġf ield
ĠSt ates
at or
Ġvis it
z z
r is
Ġa v
Ġg ames
Ġh um
res h
s c
id ed
Ġac ross
o es
Ġ ve
he m
ĠM ic
the re
Ġen em
Ġar m
W here
ar ing
Ġstre ets
ess ion
Ġl ess
ĠE minem
le y
ĠThere fore
I m
T ER
ut es
r or
Ġal one
Ġfuck ing
ĠWh ite
Ġd ro
st er
ĠM ay
ĠTh ou
ĠA d
Ġcont ro
ĠRep ublic
Ġpr ison
Ġdat a
g ress
t en
Ġm atter
U R
b all
Ġf if
Ġd iv
Ġv ict
Ġs ick
id ge
ĠA t
Ġbre ad
Ġrem ember
cer ning
c ame
ow ed
Ġv iol
ĠA ng
Ġbeg in
4 0
Ġh op
am b
ĠC ity
Ġres p
i pe
u ed
Ġg ang
Ġst ren
Ġ2 00
so ci
Ġro om
mb ers
; -
Ġc old
am s
Ġmus ic
we red
wh ich
ing ly
Ġal ong
B l
ag o
Ġde velop
cl r
a pe
Ġm ad
Ġsw ord
p in
ap er
Ġann oun
Ġ X
Ġc reat
Ġc ried
Ġcom es
ang er
Ġprodu ct
Ġdiffe rent
Ġm ess
Ġf ac
Ġcr ack
aj or
Ġli ving
Ġmy self
Ġman ag
Ġs at
ĠP ro
Ġtr uth
Ġc rew
ĠC an
iv ing
ke y
O r
5 0
if t
our n
Ġin te
ĠAmeric an
Ġe as
! "
r ay
Ġin j
if y
e y
Ġde cl
Ġho ly
Ġaut hor
Ġa w
Ġc orn
Ġst ood
Ġc ities
ĠQ ue
. ,
Ġsp irit
Ġdel iver
Ġm ic
Ġse ll
ĠJ ay
l ine
ĠL il
Ġcra zy
ĠM c
ĠL amanites
un e
Ġtou ch
Ġg od
Ġj ob
a pp
Ġco ver
Ġp ar
Ġd ick
Ġli e
ĠW ashington
Ġcommand ed
Ġinvest ig
3 8
Ġ .
Ġc atch
ĠL et
Ġcle an
Ġl ater
ir on
Ġp at
Ġre v
Ġdr ug
Ġjud ge
G od
g in
Ġs qu
Ġfe at
ro ok
er t
er ness
Ġget tin
or row
Ġhe y
ĠC on
Ġse ed
Ġp ost
if f
un ch
Ġatt ack
se c
Ġdo g
w an
Ġl ate
ay ne
ĠM r
Ġmonth s
ĠNep hi
Ġgo es
Ġinform ation
Ġc ertain
Ġwith in
ĠSt ate
r n
s p
he l
le ct
Ġre b
W ell
Ġsec urity
Ġm ain
Ġl ab
Ġn ice
ĠP eter
it ude
Ġc re
Ġh on
Ġsm oke
C l
b b
oo se
Ġan al
Ġjud g
Ġli ft
res ent
c han
er ve
st r
Ġst ar
con om
Nigg a
Ġfriend s
e ad
in t
Ġ2 9
Ġcompan ies
Ġans wered
4 4
Ġp os
Ġd amn
ĠM y
Ġ2 3
a u
Ġc ustom
Ġe ye
Ġwe e
Ġ2 7
Ġmom ent
Ġt ill
Ġs ight
Ġb ed
Ġd et
ĠL ou
pl oy
Ġf ut
ĠW hen
ub b
ff ic
v ille
Ġw ish
ĠB ar
Ġ2 1
Ġf ool
o le
in ed
Ġab ove
b ur
Ġp ie
Nigg as
N E
a im
w er
Ġre se
Y our
en n
Ġre ign
Ġle ast
Ġfl esh
ĠAng el
H a
Ġf oot
Ġg at
Ġs y
Ġevery body
ru it
C E
Ġd a
Ġdw ell
ĠF ather
Ġapp ro
Ġhtt ps
ac ob
Ġp ot
Ġdo ll
Ġcomm un
Ġspok en
E Y
Ġs um
Ġb attle
Ġpro ble
I T
h h
Ġr ather
Ġt reat
Ġs im
uro pe
Ġf at
ad dy
Ġcon cerning
ĠE x
Ġwr itten
Ġto wn
Ġkid s
P l
Ġfor ward
Ġbu y
ĠK an
Ġke y
F rom
a ut
Ġhis t
ĠW ayne
Ġtry na
Ġf le
Ġele ct
n ers
ĠW orld
d le
as es
the ir
Ġpol it
Ġp oor
ĠS u
em ocr
ull y
Ġking dom
Ġrem ain
Ġofficial s
Ġc ost
ĠT ai
it ing
ic ago
ot a
Ġr id
Ġsh ut
av y
Ġboy s
Ġins ide
ri f
ĠP e
ab l
Ġke pt
Ġinter n
Ġin n
Ġn ation
Ġh ust
Ġqu arter
Ġd en
Ġcon c
ĠK ing
Ġtw enty
C ome
Ġf ig
ic ally
ig r
ir t
Ġ2 6
Ġpro ject
Ġsp ot
Ġlar ge
Ġs uck
ĠC ap
G o
P art
h uh
u le
Ġl ed
os p
Ġlook ed
ĠT o
Ġme mbers
D o
e ep
p ing
he red
om b
Ġmil it
ĠA M
eder al
p ro
itt ed
on a
ir m
ĠS yri
Ġcan not
Ġtalk ing
r ound
ac ed
ĠU S
Ġcle ar
Ġlist en
wit ter
Ġp en
Ġre ason
Ġdaught er
c um
Ġpro gr
Ġfl oor
Ġsk y
M e
ĠS c
Ġcomp et
amp le
b ut
ĠI nt
Ġpro b
Ġab le
ost on
Ġacc ount
Ġway s
Ġim m
Ġor gan
ĠO r
Ġcap tain
A t
ĠC ent
ĠJ acob
Ġres pect
Ġear ly
Ġe conom
ĠG l
Ġstre et
Ġask ed
Ġcour se
Ġb ust
Ġm ajor
ock s
ĠS am
el f
Ġse ver
Ġal most
led ge
Ġserv ant
ht t
ĠB ig
ĠE urope
M ost
ĠW ill
ĠCom m
E C
c ast
Ġc ash
Ġh ig
Ġother s
T r
at est
Ġj oin
av es
Ġtri ed
Ġpri est
Ġ vers
ent h
Ġtr ust
Ġ ver
ĠE ng
Ġwork s
Ġto day
ĠS en
Ġ4 9
Ġserv ants
3 9
ac le
A n
h ost
et imes
p ar
Ġy es
Ġfeel ing
Ġreport ed
Ġ2 2
Ġcl ot
av or
Ġspe nd
Ġstart ed
ac y
on ight
Ġhe at
Ġwas n
ĠJ ew
Ġpres ent
Ġb orn
ur ch
ĠP ol
Ġle vel
cc ess
ĠKan ye
w as
ro om
ĠP r
20180 4
Ġhe ld
ĠH ar
Ġch ick
Ġpre t
ru ction
Ġnoth in
Ġmotherfuck er
Ġt ar
Ġc ool
ĠT ech
Ġcl ass
e es
et y
ut ed
P ro
Ġor der
ip s
Ġgl ory
b o
ha d
Ġc ol
Ġl im
Ġsc ream
Ġ4 0
Ġcr it
i od
u ct
Ġb ag
ill a
Ġex ec
ious ly
Ġcap t
Ġm is
Ġc oup
il ed
Ġpr in
anc es
ĠAngel es
Ġm ag
Ġin iqu
Ġfor g
her s
ter n
Ġper form
uss y
b l
Ġb reat
ĠG O
Ġpri ests
W hile
Ġk ick
th y
cc i
Ġen g
Ġcons um
Ġfut ure
Ġc ir
id a
igh b
Ġf ine
st on
Ġag o
Ġ201 6
Ġgl obal
Ġb ord
Ġwild erness
P ut
o ly
min istr
e ar
ĠD emocr
ive red
Ġsever al
e ed
Ġn ations
Ġfor m
il es
fe rence
ĠTh us
Ġwond er
k ing
at ors
as ure
ĠS on
Ġcould n
Ġmur der
Ġoff ice
Ġstren gth
i ers
et ro
Ġha ir
am ed
Ġst ory
Ġmak es
Ġe qu
Ġtr ad
b t
al ity
Ġ er
Ġbe came
ĠB usiness
av ing
it ions
Ġf oc
Ġno body
Ġgu ess
Ġb le
ĠA hab
Ġv al
Ġlead er
Ġt aking
ĠB oston
ov ed
y ou
ĠG o
ol ina
Ġspe cial
ove red
Ġem ploy
k ay
Ġs our
Ġc ross
ad a
Ġb illion
Ġf ail
at ure
Ġindust ry
ĠLou is
i j
in o
ap t
Ġlead ers
Ġbro ke
W ORD
Ġt ree
ĠJ an
EY WORD
4 5
Ġg reen
Ġ2 8
Ġdes ign
T R
T ell
Ġf ur
ress ed
Ġf ood
Ġel se
r ing
Ġp ush
Ġha ng
Ġloc al
Ġin f
ar on
Ġne ck
Ġwr ite
Ġrece ived
u nder
Ġrun ning
Ġev ent
l s
Ġs us
ad o
Ġtr ou
h u
i um
ha le
id ay
ĠG ames
ĠO n
Ġserv ice
Ġtechn ology
Ġman ner
Ġchan ce
f ully
or ida
Ġd ig
ĠS an
ort un
g est
Ġo il
Ġme ans
Ġout side
Ġpro cess
F l
nd s
Ġp ack
oo p
Ġplay ed
Ġnear ly
Ġt ab
ĠG er
Ġj ump
p or
ĠCh ina
ut ions
Ġcar ry
ĠP l
ak ers
Ġrep resent
Ġl aid
ĠD r
ĠO ne
Ġwat ers
Ġbu ilt
4 1
hi a
Ġmed ia
Ġf ruit
Ġbe ast
ol s
Ġcha mp
ĠIs land
Ġinte rest
S E
a ff
Ġme m
are nt
Ġheart s
ĠA ust
and s
if ul
Ġyour self
Ġlo ck
N ot
l ight
ha ve
Ġex ceed
Ġsu per
eg as
Ġt ax
Ġso ft
Ġexpect ed
N ever
p ort
ra id
T ake
t ar
Ġt onight
an ct
el p
ord s
ĠYe a
erse y
A in
I R
Ġ z
Ġprop he
Ġdra w
Ġn ine
ĠJ ust
b it
ac hed
Ġall eg
ĠWhere fore
Ġty pe
Ġa nt
Ġb igg
ĠS ol
ĠW ho
od e
Ġne ighb
Ġpass ed
w hat
al ed
id ence
ĠM o
iss ion
ĠLe v
4 2
r ain
r act
t le
er y
om an
Ġtr ain
Ġent er
Ġrese arch
at han
ar i
Ġor d
Part ly
Ġcoup le
ly n
Ġwork ing
Ġadd ed
Ġst yle
Ġde fe
ward s
Ġbro ken
ha el
Ġc and
ĠC or
Ġimp ort
Ġpri v
Ġdri ve
f rom
end ed
inn es
ic y
ri z
Ġplay ers
Ġwit ness
4 3
Ġs ac
Ġm ot
ĠP aul
ven ant
Ġon es
E x
al m
ĠW ire
Ġsu ccess
Ġbr ain
Ġseem ed
Ġb ill
art ment
Ġrep ent
Ġmid st
Ġp aper
Ġwe ed
ĠD ep
Ġv iew
du ced
urs day
Ġb en
ĠC o
fl ict
etro it
or ies
is ing
Ġn ational
Ġre ach
ad es
ct or
Ġad ministr
Ġany thing
Ġchar ac
Ġannoun ced
4 6
w are
Ġb us
Ġf resh
Ġwant ed
Ġcount ries
ĠRuss ia
ĠT ur
ound s
Ġdel ivered
Ġw ake
Ġh or
f act
m m
Ġb ow
ill y
ĠJ o
Ġro se
Ġfin al
Ġquest ion
Ġenem ies
b ack
Ġc aught
Ġtr ack
Ġbro ad
Ġes c
Ġmight y
Ġdev il
ĠKore a
innes ota
d a
ĠS w
The se
com m
Ġlead ing
Ġmotherfuck in
Ġser ve
Ġa ge
Ġp ra
im b
ĠJ ersey
em pt
Ġj oy
Ġgo al
oron to
ĠS m
und ay
l on
m ing
her it
Ġkn ock
Ġget s
T ON
m es
re et
ĠR ed
Ġbuild ing
Ġprob ably
c ing
am ent
ly mp
iz ation
oint ed
h ites
ĠN ational
Ġgo in
Ġpl aces
ĠAs soci
Ġhist ory
Ġp ort
Ġp ict
Ġg ri
Ġn et
ĠC am
Ġshoot ing
Ġhur t
ĠTai wan
Ġ ut
ĠS aul
ĠB aby
ampa ign
Ġcontro l
4 8
ing er
Ġd am
Ġbl ue
Ġ3 1
med i
ĠCal if
ĠDon ald
Ġav ail
Ġ *
it ive
ll en
w ill
w ork
Ġen c
Ġch urch
b ook
n in
s u
Ġp ussy
ĠA aron
her n
ĠE d
Ġswe et
Ġstat ement
Ġsing le
ĠAf ric
Y es
l im
Ġof ten
Ġfam il
S p
s y
st it
ak ed
Ġhour s
ad elp
os o
Ġknow ledge
Ġwr ote
Ġsil ver
K eep
N ew
T ry
Ġb ase
Ġm ass
Ġper iod
adelp hia
r an
Ġg ar
le x
Most ly
I L
W h
c he
h ouse
Ġw ood
ic o
Ġhapp en
Ġdou ble
Ġjudg ment
A f
y o
Ġp o
Ġp ick
Ġst ick
Ġpro per
Ġsp it
iz z
f ace
Ġs anct
an y
Ġth ug
Ġpart ic
Ġclot hes
E D
Ġr an
Ġr ich
ĠD o
ĠD an
ĠO lymp
ĠK im
Br idge
Ġfeat ures
L ORD
Ġb an
Ġc ampaign
Ġd ance
Ġh y
ĠB ay
l ike
l ier
ĠM C
Ġplay ing
ĠAmeric a
f fect
Ġo cc
ĠP ar
Ġcom eth
itt in
Ġsc ored
Ġgang st
Ġ ...
Ġa head
Ġth reat
iv ity
Ġfollow ed
ivers ity
Ġt ight
Ġb es
Ġv ide
Ġro ad
Ġsec ret
Ġmin utes
iqu e
reg ation
Ġgat hered
B aby
id ing
Ġsh ots
Ġco ach
Ġinv ol
u ly
Ġl oss
Ġal ive
Ġ201 7
het to
Ġmilit ary
r ough
Ġb ra
Ġg as
ĠJ on
ul f
ang ers
Ġmer cy
Ġprogr am
it er
Ġe ff
ak es
Ġbo at
Ġmotherfuck ers
r r
ay s
Ġbe aut
Ġre le
Ġshe w
Ġf ederal
Ġsha r
Ġye ll
ul ts
ail s
Ġlear n
Ġprot ect
M ore
d own
e al
Ġe ffect
ĠM in
Ġthink ing
anc ial
Ġ0 4
Ġf illed
Ġp it
Ġp aid
Ġbe ar
te red
Ġdisc ip
B A
ne ct
Ġchar ge
Ġfollow ing
ĠCar olina
Ġrhy me
S un
f er
Ġw ise
am in
Ġaf f
Ġhead s
Ġco venant
Ġgrow th
iam ond
B itch
i pped
m it
ed ia
ut ive
Ġr ise
Ġlo se
Ġ ice
ĠP ress
ĠA P
Ġwe ap
Ġar rest
Ġte ach
Ġreport s
Ġopp ortun
or ing
Ġse par
ra b
Ġtalk in
Ġcur rent
n ight
ion al
Ġcomp let
Ġrece ive
Ġ ident
Ġhe avy
ĠM ark
a ult
b an
Ġc oun
ĠG e
Ġsu ff
itt ee
Ġbur nt
4 7
Ġs elf
Ġl ad
al i
Ġre j
ĠC har
ĠB o
all as
ĠP ha
pe ople
ĠThe se
og n
He re
Ġfour th
k es
u ary
or ado
5 3
i en
y n
Ġw ine
Ġfor get
ĠC up
os ing
Ġvers ion
o ber
Ġs outh
ow d
ay ing
ent ial
ra p
Ġper fect
Ġph one
Ġfur ther
t r
Ġh ip
ĠL u
Ġfa ir
Ġans wer
Ġposs ible
Ġiniqu ity
f ort
Ġd ope
Ġcha in
Ġsm ok
Ġreturn ed
M ake
n o
ĠJ ap
Ġal tar
Ġaf raid
Ġnor th
ĠJew s
Ġs en
Ġm ir
Ġm atch
ĠC ong
ren ch
Ġcha llen
Ġrec ent
ĠIn c
Ġfore ver
Ġin herit
Ġ1 00
Ġbo ard
ex as
ĠGer man
u ge
ag ain
we re
Ġlook in
Ġ7 2
St ill
i as
ar a
Ġme at
th is
Ġbo x
Ġavail able
A bout
M ay
en g
ĠD og
ist an
Ġsp ace
R ep
l ook
Ġw is
Ġm at
re ak
Ġb ank
ent al
ĠS pe
Ġlight s
AC T
riz ona
Ġf elt
ĠS unday
Ġfuck ed
ens ive
Ġcontin ue
Ġeas y
E L
Ġs now
Ġf und
ĠH is
ord an
Ġ3 2
orn ia
Ġsac rif
e qu
Ġse arch
Ġim medi
Ġimp ro
c ies
Ġ ide
Ġb omb
ac c
op s
ĠN e
Ġadministr ation
8 0
i ally
r s
st orm
Ġex cept
Ġsl ain
Ġra ised
Ġseem s
Ġhum an
Ġh uh
ES S
ĠYou ng
l o
Ġb ird
ĠS ec
Ġpr act
Ġdoes n
Ġca used
L e
i ant
Ġse v
ĠW ith
ĠD re
ate g
Ġus ing
Ġ4 8
Ġen v
Ġthrough out
Ġserv ices
5 5
Ġb ond
Ġli ves
Ġsha re
Ġdes p
Ġappe ar
Ġwe ar
Ġan ger
the less
ĠCh icago
I I
Ġb oo
Ġl aug
ud den
Ġneed s
d o
al y
ĠN ot
Ġsay in
ell ig
Ġsur v
Ġdaught ers
Ġg ate
ĠO b
Ġmeet ing
O M
s bur
ĠA nt
Ġe mer
ĠD etroit
end y
Ġhom ie
Ġproduct s
E ven
e el
re al
Ġsha ke
Ġtr uck
Ġsin s
G u
Ġin fl
ab ility
na v
Ġwee ks
Ġbord er
p ter
Ġt ong
Ġprophe ts
6 0
l ish
ir gin
Ġbl ind
Ġgr and
ĠMic hael
Ġfoc us
Ġag re
Ġf avor
is es
Ġdark ness
ĠSu per
our t
Ġsome body
Ġsour ce
i res
u fact
Ġl ady
Ġqu ite
ern acle
ĠGu cci
Ġbegin ning
Ġconc ern
l ant
Ġb are
Ġg hetto
ĠP at
em ents
ak er
igg ie
Ġang el
Ġpret ty
4 9
H AP
s pe
ound ed
Ġsp read
Ġun cle
Ġrep l
Ġcr owd
Ġwind ow
Ġbless ed
v est
re me
Ġwhat ever
Ġex c
Ġopen ed
Ġrighteous ness
HAP TER
ĠM arch
itt sbur
Ġlong er
ĠSp irit
hab it
S ha
e en
t hen
ĠI ll
ad ed
ain t
Ġacc ess
Ġcare er
Ġtra vel
Ġtre es
Ġest abl
ĠJap an
ittsbur gh
w ise
Ġb as
Ġl y
ĠJ os
pt y
Ġhapp ened
b el
p ass
Ġc am
Ġe ither
Ġcon g
Ġcoll e
Ġincre ase
Ġsum mer
5 6
P ac
b ased
at in
Ġsh ine
Ġcom b
Ġplay er
Ġra ise
ci ally
Is rael
i el
Ġh ide
Ġ201 5
Ġdec ision
Ġhig her
Ġimport ant
A yy
i ents
he st
al o
ĠL a
ri be
Ġwould n
Ġpre c
Ġintern ational
h ood
ĠH oly
C op
ĠA g
ĠA pp
Ġcont rib
Ġinter v
Ġdisc uss
AS H
ĠRepublic an
T A
b and
f riend
ĠT exas
Ġk iss
Ġlike ly
pp ing
Ġspe ed
ru pt
Ġser ies
Ġswe ar
ING TON
O oh
o x
he im
ha nd
Ġb ud
ed ic
ĠD J
Ġtry in
b oy
Ġst ore
ĠT witter
ĠN as
Ġ19 9
ĠNep hites
Ġexper ience
Ġcorn er
ĠDep artment
ĠCalif ornia
Ġh ol
Ġsa fe
Ġbl ast
Ġcar ried
Ġdou bt
ĠCol umb
osp ital
7 0
P h
Ġb oss
ĠL os
Ġse at
Ġsh op
Ġcom in
the e
Ġfe ed
Ġ +
Ġh id
ĠM innesota
Ġchan ged
ĠLe ague
Ġstand ing
ĠAust ral
k y
l am
Ġsk in
sh ine
O L
Ġc red
is c
ar m
om on
Ġh us
Ġbe ef
Ġhost s
s hip
ha ha
Ġr ate
th ou
ĠJ ordan
Ġcl aim
up on
ĠTh ursday
Ġmin ute
Ġdream s
E O
v ation
y ard
Ġt it
Ġs ort
Ġn ames
Ġth irty
ĠK en
be red
Ġprov ide
Ġimm igr
5 1
S W
m ore
Ġl ower
Ġr ace
il ing
ĠH er
ĠF ed
pp in
Ġvide o
Ġs ought
Ġwe ak
Ġgl ad
Ġmid dle
k in
s ed
re l
Ġc ars
Ġf ish
Ġd irty
Ġli vin
ĠB y
ra ham
ant ly
Ġatt empt
Ġgun s
ĠJose ph
o id
Ġw ide
ver age
ĠH am
Ġwant s
Ġinclud e
Ġcommand ments
Af ter
ĠCong ress
S c
Ġp urs
ĠW hy
Ġpl ans
ee zy
S ay
e re
Ġb ought
Ġp imp
I ON
h ic
k a
Ġb out
Ġe ast
so ever
Ġsometh in
Ġmult ip
Ġr ing
ĠM e
ĠFr ance
c el
d d
Ġb uck
Ġd oth
el ve
Ġall ow
ĠJ ack
Ġdo in
Ġar my
Ġsome one
Ġstre t
Be cause
Ġwis dom
S m
c ul
Ġf irm
ĠT V
Ġch ill
Ġpart s
Ġgl ass
ha h
Ġm ix
es sel
Ġst ars
ra oh
ang u
Ġsm ell
Ġprop het
ĠQ u
ĠBl ack
ĠRuss ian
Ġcong regation
w ho
Ġm o
Ġd ough
Ġh ous
Ġlaw y
Ġadd ition
Ġmult itude
Ġpolit ical
Ġcharac ter
Ġc amp
et ter
Ġsh ower
Ġ3 3
Ġdestroy ed
Ġbreat h
L ord
z er
ĠC ount
Ġman s
Ġdis p
Ġcustom ers
ASH INGTON
Ġa ction
ĠA rizona
ro ad
Ġli ps
ĠM al
ug ht
Ġsc r
Ġright s
atur al
5 2
nd ing
Ġm ama
Ġf it
Ġj ail
Ġare a
Ġv ot
ĠO T
Ġco ast
or ney
Ġrec ogn
Ġcap ital
Ġposs ess
ĠWill iam
h op
p o
is l
ig in
ĠM ike
ant ed
Ġsp l
Ġadd ress
ĠAm mon
Ġmov ed
atur day
Ġt our
ou ra
Ġp un
al es
Ġro b
ĠSt ar
Ġdr unk
ines e
Ġsom etimes
Ġsal es
Ġbott om
C he
C om
Ġd iamond
Ġto t
Ġl oud
Ġn amed
us hed
ĠM a
il s
ĠW endy
Ġwor th
Ġdes c
chan ge
Ġproble m
re es
Ġp ock
ir ing
Ġkill ing
Ġwha les
Ġgener al
Ġiss ue
Ġinvestig ation
Ġb ang
ot o
ĠB uff
Ġne g
Ġman ufact
Ġv essel
Ġfin ancial
Ġteam s
Ġinst ead
6 6
C ol
Ġar g
Ġauthor ities
O T
Ġo bs
Ġg ather
Ġso cial
ĠO f
up id
az e
Every body
Ġprep ared
Ġ3 7
Ġar ms
Ġgr ind
Ġdes ire
Ġdem and
Ġtrou ble
Ġtab ernacle
ĠSol omon
Ġfamil ies
S O
i ar
y ond
Ġ iron
Ġb ased
al t
Ġu r
ĠJ une
ĠO h
rook lyn
Ġgangst a
B C
Ġm ist
Ġsha d
Ġtri b
5 7
f ield
m akers
u z
ha ps
Ġp ark
Ġre ve
ĠS a
ĠB oy
Ġsu g
aw a
Ġfin ished
Ġspok es
Ġpur p
ĠGO D
5 9
Ġcl os
ĠBr it
W ASHINGTON
or g
Ġn ut
Ġr iver
ĠJ oe
ie ve
Ġmay be
Ġlaug h
A m
o om
y right
as ing
ĠN ick
Ġv ine
Ġstr ange
Ġmov ing
Ġdoll ar
ĠIsland ers
Ġc ub
Ġd ue
Ġpro s
ash ville
anc ou
Ġdest ruction
ĠFr iday
Ġdiscip les
A D
Ġf ans
all ed
Ġcon v
Ġfl ed
It s
Ġcha ir
Ġsl ay
Ġtri p
Ġter ror
Ġve hic
Ġviol ence
ellig ence
ancou ver
O f
Ġc ock
Ġit self
ĠM ex
ce ll
ĠP er
ĠR ock
Ġwar m
c il
s ha
Ġm ill
Ġf aces
an ch
Ġg iving
ir th
Ġtr ade
ĠU N
Ġear lier
Int er
Ġrul es
ĠQue en
Ġexceed ingly
Ġpict ure
Ġcomplet e
ĠDog g
S om
Ġp arent
Ġd eter
Ġd anger
ro ll
Ġwe ight
all ey
os en
Ġaf flict
Ġar ri
iv al
Ġsc ene
Ġstr ugg
anc ed
Sh it
Ġlift ed
Ġc at
Ġl est
Ġl ord
Ġn on
ag ed
oll y
Ġpart ners
Ġthought s
Ġaut om
Ġthousand s
Ġrapp ers
ĠSyri a
Ġrele ased
s ing
he ld
or ious
Ġl atest
Ġin it
ch ild
Ġde ck
ĠE n
ont real
Ġpres ence
Ġele ction
Ġprom ise
G ive
ĠM ore
el ess
ĠG host
ag ing
Ġcomp l
Ġbelie ved
ask et
ĠBaby lon
C ON
D amn
Ġp ub
Ġe ld
ent iles
ĠM oney
ĠP ac
ĠP har
OR K
ĠUn iversity
Ġleg al
Ġopp os
ĠFl orida
Ġpie ce
U B
You ng
Ġ3 4
Ġcall ing
Ġcons ider
S e
Ġt able
Ġs udden
re y
Ġre pe
Ġsa v
Ġsh oes
Ġv an
Ġbr and
Ġsc ared
ĠUn ion
Ġsur pr
sec ut
al se
ĠC ourt
ĠW ar
Ġcon nect
Ġhtt p
NE W
A h
u ation
w ide
ĠS ep
ĠC le
um e
Ġsp o
ace book
Ġfl o
ye ah
ict ed
ĠBen j
ĠSen ate
Ġimmedi ately
k now
Ġ et
Ġ id
Ġ ign
Ġf ix
ĠF eb
Ġ5 1
ru ct
pr il
Cl oud
ĠPha raoh
A M
w ood
in c
ic ed
ĠM er
iv id
Ġbel ong
Ġtri be
u u
ĠS n
Ġr aw
Ġsee ing
ĠV egas
Ġmin ister
IS C
Ġfif ty
htt p
oso ever
Ġsuff er
B ack
m ark
Ġ 000
ha l
ĠC ON
ce ment
ain e
ĠJ ames
Ġknow s
Ġsp oke
Ġthan k
Ġwhere fore
Ġche st
Ġdepart ed
Ġs ister
nd ed
Ġw ilt
Ġf ill
Ġpl ain
iv il
ĠCh inese
ĠPhil adelphia
Ġinn ov
h ow
i ance
v eth
Ġin habit
et t
Ġhe ark
Ġe ars
Ġst one
Ġst aff
ĠS er
Ġli l
ers on
Ġab omin
ĠBe cause
Ġcloud s
G irl
s he
Ġyour selves
Ġ3 5
ĠNew s
IN D
tt awa
ĠBr own
Ġoffer ings
Ġfig ure
A G
a way
ou red
Ġf ulf
ut y
ĠS aturday
il ities
Ġro le
Ġtw elve
te en
24 00
Ġimp act
Ġac cept
ron ic
Ġsold iers
Ġfif th
Ġgod s
201804 2400
Ġhus band
s aid
Ġm aster
Ġst age
ĠT e
ard en
Ġmil es
Ġrecord s
imin al
ourn al
Ġproble ms
Ġinherit ance
Ġt aught
Ġc ook
be fore
oth ing
Ġpol icy
ĠCha pter
istr ict
in ation
Ġg iv
ĠD ra
ĠF rench
ist ines
Ġv ill
na heim
Ġte ac
Ġcomm it
Ġneed ed
Ġvict ory
ĠEurope an
Ġben ef
Ġpra ise
S w
U gh
g ary
m ont
y a
or ters
Ġd ust
ĠD allas
Ġcon ference
Ġ3 9
Ġlet ter
Ġspe ech
Ġshow s
Ġsign ed
inn ipe
Ġdirect or
iron ment
ĠBuff alo
innipe g
ĠC hi
Ġthr one
Ġatt ention
Ġsupp osed
ater ial
ipp in
Ġpos ition
ĠAssoci ated
O S
Ġo pt
Ġp ump
Ġl angu
hat h
ĠC ome
hy s
Ġrun nin
Ġbeg at
ai ah
oun ce
Ġcent er
Ġprin ces
ĠColumb us
' ?
C ar
R ight
U n
b uck
p es
Ġc ell
le br
ĠB iggie
ĠP h
ab b
ast ing
Ġtri al
Ġwalk ed
Ġrel ations
ĠAf ter
Ġdro pped
Ġsen ior
Cop yright
l ude
Ġt ro
Ġb od
Ġh oll
Ġst ones
ad d
Ġme ant
ĠW hale
ous ly
iz ing
Ġwr ath
Ġchan ges
aught er
6 8
is ions
Ġd addy
Ġbe yond
ra z
ep end
Ġoff ered
Ġstart ing
Be fore
Ġmiss ing
Ġgra ve
Ġc y
Ġd iss
ĠM ac
ĠM art
il ar
Ġchar ges
Ġpriv ate
equ eg
Ġtong ue
6 5
R un
s erv
en gth
Ġfor ce
Ġst uff
ĠT om
Ġr ule
th ough
ab or
ĠF in
ĠE m
Ġle aving
ud i
com ing
ĠAl ma
gr ound
Ġhapp y
Ġrhy mes
Ġfre ak
Ġdrug s
A ny
r at
Ġs ense
im ate
se e
ist ed
ĠO pen
Ġcr ime
tain ed
Ġreg ul
Ġgrow ing
Ġdw elt
Ġcre ate
Ġcoun sel
v al
Ġs itting
Ġb and
en ing
as ons
Ġh ospital
ĠM id
Ġv ol
Ġor igin
Ġte le
ict ion
Ġent ire
ĠAb raham
Ġwicked ness
htt ps
IR E
B I
ent ed
ce mber
ĠN ever
our ney
Ġrec ently
Ġsure ly
Ġut ter
. )
B US
C all
M oney
Ġp ill
ĠC EO
ri pt
ĠF acebook
Ġsc ore
Ġapp lic
Ġmark ets
Ġbeaut iful
J ohn
Ġ [
re p
ou ps
Ġc ant
Ġd i
Ġh ook
Ġh ung
ĠA pril
Ġfor ty
Ġme as
ol ate
Ġem b
IN ESS
ĠSha dy
Ġeconom y
Pro duced
Ġperform ance
again st
en ced
Ġst uck
oo h
ĠG entiles
ak en
Ġbr ight
Ġsm art
Ġshow ed
air s
Ġcreat ed
ĠInt ern
a it
k n
re ll
ag ger
Ġcon st
igg a
Ġher self
Ġtw ice
Ġpr ice
Ġpr oud
Ġsc hed
Ġcont r
Ġres ults
pl ay
On ly
Ġprev ious
oron i
Ġsex ual
Ġcop s
Ġed uc
b ye
Ġp red
ĠP ittsburgh
Ġag ency
ĠY ORK
Ġact iv
ĠAt lant
k ed
an n
Ġout ta
ĠR ese
Ġsp ent
Ġsm ote
Ġcomm on
stand ing
Ġtoward s
Ġinterv iew
) ]
V iew
ĠA ct
Ġsa f
Ġcom fort
Ġcont ent
Ġho le
Ġhear ing
Ġtak es
US TR
Ġfle e
ĠLev ites
a a
Ġ i
Ġb apt
Ġg ain
ĠI ran
ĠA ut
ĠT imes
ĠS im
Ġr ad
Ġcom ment
Ġlo ved
ĠSt e
ĠSt reet
pl ace
Ġgu ard
Ġsign s
Ġbusiness es
Ġpress ure
r ink
ĠA ss
Ġst upid
ri al
ĠN et
pe cially
Ġshe ep
Ġhold ing
Ġdef ense
Ġfore ign
Ġexp and
Sun ny
Inter lude
BUS INESS
) --
5 8
N W
Ġf alse
Ġg ro
Ġbe ll
ĠT oronto
ĠB el
Ġsa ved
ĠJ ones
Ġeven ing
Ġhelp ed
Ġreg ion
-- (
ĠKore an
Ġresp ond
Ġtar get
hu a
H E
P UB
T wo
k i
w ell
et ers
ro se
ĠW IRE
em s
Ġde ce
ĠE ast
Ġev ents
Ġoffic ers
Ġquest ions
SO UR
USTR Y
T ACT
W atch
l ers
in ing
or ry
Ġfor ces
Ġj ack
Ġv ote
Ġv ision
Ġam b
ĠV irgin
Ġstat ements
ipp ing
Ġmount ains
child ren
B ig
D ISC
K EYWORD
ĠT y
ĠS T
Ġsh out
Ġj ew
Ġyour s
ĠR es
ĠK EYWORD
ĠV iew
Ġserv ed
sh ould
Ġbusiness wire
ĠInd ian
Ġpie ces
Ġdoll ars
Ġcommun ity
CON TACT
IND USTRY
SOUR CE
R em
Ġm oon
ĠT im
ĠM or
ĠB a
ĠP ark
ĠN ashville
Ġdo ors
Ġwork ers
Ġrapp er
7 8
A Y
I A
r it
u ke
y our
il ton
ive ly
Ġle an
Ġ5 9
ĠAmeric ans
Ġship s
Ġtem ple
ĠRese arch
f ather
Ġo kay
ig er
ĠA rab
Ġv ain
Ġlook s
ys is
Ġmount ain
ĠDe cember
ĠCal gary
Ġenem y
Bl ack
Ġlad ies
H old
Ġa verage
in to
le m
ĠL atest
ĠO ct
Ġte ars
Ġch oose
Ġquick ly
Ġpot ential
Ġyell ow
B y
P e
Ġa im
Ġf ake
Ġf inger
Ġn umb
ĠS ant
ag er
ĠR angers
Ġgr own
Ġthy self
Ġind eed
Ġchar ged
Ġmed ical
Ġmult im
d s
e z
f fe
Ġc overed
Ġh unt
ut ch
ĠP art
ol ution
Ġpro ceed
Ġsp ark
Ġ4 6
ott en
Ġsle w
Ġlar gest
Ġprof ession
Ġiss ues
ĠEng land
Ġbigg est
b orn
j oy
n ant
r am
Ġw ww
Ġb ound
Ġm ob
Ġth ick
Ġu nd
Ġus ers
Ġgr oups
23 00
Ġpop ular
Ġdevelop ment
201804 2300
Ġsacrif ice
d ing
k ins
l ong
Ġm ach
Ġc up
ve y
ĠS erv
art ed
Ġte eth
Ġper ish
Ġqu it
Ġim age
Ġpartic ular
Ġsaf ety
I P
P re
y al
Ġs ize
Ġs orrow
as hed
Ġre du
Ġsp ots
Ġex act
Ġhat ers
Ġacc used
Ġcomm itted
az ing
Ġjud ges
Ġent ered
sh it
Ġmanag ement
Tr ump
Ġmultim edia
R ock
g l
Ġb irth
Ġm ention
at ives
Ġn in
Ġn aked
ver t
ad ing
Ġr ac
ĠH igh
ist ic
Ġbl unt
Ġgr ace
Ġsm ile
Ġend ed
Ġapp ointed
Ġint ro
Ġfore cast
Ġperson al
Ġd umb
as ant
Ġh oney
Ġbe ha
Ġme asure
ĠM us
ra ph
out hern
ist ry
Ġspe aking
Ġmess age
Ġcrit ic
. ]
6 4
ou ston
Ġp ath
Ġd ip
Ġl ength
Ġre nt
Ġall owed
Ġv ar
ud es
Ġthere in
Ġfl ag
Ġthan ks
anc y
EN T
Ġwait ing
Ġgener ation
Ġsol utions
ĠTech nav
Ġrej oice
ĠCount y
M r
c an
m ight
ic a
ĠC he
ĠO ff
Ġen er
ĠV iet
May be
Che ck
6 2
F irst
T urn
c her
i ber
m ar
w in
re th
ĠT ake
ĠM ary
Ġsign ific
Ġleg isl
Ġce lebr
Ġanal yst
Ġuncle an
ĠBenj amin
G Y
Ġa rose
Ġo x
Ġd ise
Ġto m
ĠM oroni
ĠG A
ol f
ap pe
ĠO ttawa
be cause
Ġser ious
Ġint elligence
Ġsub ject
Ġsal vation
Ġarrest ed
T ech
n el
ĠG et
Ġwor ry
Ġres ult
Ġstud ents
Ġrequ est
Ġcir cum
L a
w ty
er m
is her
ag g
ul ed
Ġ201 4
Ġfin ish
Ġgovern or
olog ies
Ġmean ing
Ġgra b
af ter
7 5
b um
o am
re ct
Ġis n
Ġpl ant
Ġab s
Ġex ample
Ġreg ard
ĠCom p
Ġlear ned
Ġes pecially
ĠAustral ia
H is
e ans
Ġon line
ep ing
Ġex ist
Ġpr ide
Ġcall s
Ġres ident
Ġreg ular
Ġsus pect
Ġhor se
Ġo ught
Ġc ult
Ġc ivil
ĠA h
Ġe p
ent le
ur al
Ġli f
hi ps
Ġar k
end ing
ĠV er
Ġqu iet
Ġspe c
Ġ6 0
Ġlaw makers
Ġpull ed
Ġext ra
ĠGr oup
ĠCan ada
ĠCap tain
ĠJos hua
i est
Ġb id
Ġc ases
ar r
al a
Ġst ates
Ġis land
Ġsa il
ĠG P
Ġj ourney
Ġcl a
Ġind ivid
Ġrequ ire
K now
P hil
z en
Ġt ick
Ġs ides
re ction
Ġg rew
Ġn atural
ĠP M
Ġro of
ĠU p
are th
ĠHe alth
Th ink
ĠBen z
Ġweap ons
S pe
s es
s et
u x
u it
it iz
Ġp itch
Ġh its
Ġne cess
ĠR oy
Ġch osen
Ġrem em
Ġsw all
Ġsun shine
Ġmod el
) :
7 3
W oo
j ust
Ġb ars
Ġc as
or ge
ed s
Ġp oll
Ġh orn
Ġthat s
st e
il ty
ĠG old
ra im
Ġde g
Ġ5 00
ĠSt ubb
Ġend s
Ġgu y
ER IC
Ġsoul s
Ġfight ing
Ġris k
Ġvict ims
Ġalleg ed
Ġparent s
Ġinhabit ants
8 8
T il
d est
Ġo oh
ow ers
ĠA ug
Ġhow ever
ĠV ancouver
Ġdis m
Ġatt orney
Ġprodu ction
Ġdra g
ĠPhil istines
Ġresp ons
Ġcol or
Ġval ue
Ġlock ed
Ġhous es
mont on
7 4
P ol
Ġf ie
Ġl ines
ig an
Ġre ven
ĠS il
Ġr ic
ĠC han
ĠG reen
um ber
Ġ- -
ĠVirgin ia
A d
C on
O kay
S an
T M
U N
Ġ Yeah
ed om
Ġp hys
ow l
Ġr ange
ĠM on
th ings
ĠW innipeg
OR TH
Ġcr iminal
Ġacc om
Ġadv ance
Ġbrother s
Ġsub ur
bo ard
Ġemploy ees
E M
g ency
Ġb ones
Ġp our
Ġd ry
om en
ĠD ay
ĠD el
ide red
Ġfall en
Ġdif f
Ġunderstand ing
ĠCol orado
ĠQue equeg
Ġlim it
Ġs ir
Ġw est
Ġb oot
as se
Ġme mber
Ġr ush
ĠM iss
ign ed
Ġland s
Ġpre ach
Ġcomm ittee
Ġset tle
Ġprop hes
Ġprep are
Ġesc ape
Ġsev enth
Ġinfl u
Ġpub l
c ont
it ches
Ġm ut
Ġm aterial
Ġf ro
ll ed
ke l
ĠM ich
Ġwas h
ĠN ove
Ġgo als
Ġ3 8
Ġjust ice
Ġfl ip
Ġoffic er
Ġwalk ing
ĠAr t
Ġopportun ity
raz il
H ell
L E
p art
Ġw et
Ġc ab
Ġp ure
om uch
et e
ĠR am
ist en
Ġle ague
ug s
Ġpart ner
Ġrem ains
Ġass ist
ĠJohn son
Ġang els
Ġda ily
Ġorgan iz
G r
s a
er o
Ġp an
Ġre ached
ĠM el
ĠG F
ĠD iv
Ġdri ven
Ġappro ach
Ġsim ilar
Ġspend ing
Ġtrain ing
Ġenv ironment
Ġcred it
Ġpurp ose
5 4
M other
P lease
b re
g u
w r
Ġt im
Ġl ick
ve land
ĠB rooklyn
ĠP ts
ond on
ub e
Ġgu ilty
Ġbo om
Ġwatch ing
Ġappe ared
ĠRepublic ans
IT ED
ĠOlymp ic
Ġide a
Ġener gy
7 7
8 9
Ġt ast
ic ide
oo g
ĠB ill
ĠR ick
Ġcl osed
Ġhand le
Ġgreat er
Ġtalk s
Ġstop ped
ib ility
Ġste el
Ġproject s
ĠGerman y
Ġbod ies
6 3
6 9
H it
I D
c hers
o be
p a
Ġl one
le g
ĠP ort
Ġcon vers
Ġpl at
Ġwho a
Ġlo ves
Ġrun s
ek iah
Ġinclud es
Ġsim ple
ĠEng lish
comm and
Ġinvol ved
j a
er a
Ġl ying
ĠS ome
Ġwh osoever
ain ts
Ġsa ke
ĠE ph
Ġsu bs
Ġwor se
Ġ5 5
Ġper haps
Ġim ag
ash ion
Ġput ting
Ġmiss ed
iam i
Ġinj ury
ĠMex ico
7 2
L os
i us
w hen
Ġa ud
ha med
Ġbe ats
Ġwe ather
Ġli es
Ġthan g
Ġstr uck
Ġbel oved
Ġev idence
Ġmov ie
Ġstud y
Ġbull shit
ĠAM ERIC
ĠDemocr ats
r un
Ġa yy
Ġc al
Ġd ate
Ġl oose
at tered
ad or
ur ies
ĠD ar
ĠH ill
ĠIs lam
Ġwork ed
Ġcloud y
Ġjoin ed
Ġcolle ge
ĠNove mber
A meric
d es
d el
i os
l ad
Ġw ives
ĠT wo
Ġdo cum
Ġem pty
Ġmiss ion
Ġstep s
Ġfun ny
ĠDemocr atic
stit ution
Ġshar p
B reak
b a
Ġb ath
Ġp al
Ġbe held
ĠA lex
Ġr out
ast ic
ĠE ar
Ġ5 8
erv ed
Ġturn ing
Ġgu ys
Ġmotherfuck ing
Ġdri ving
cle ar
ĠChar l
ĠOb ama
G ood
g han
g reat
Ġf an
st ar
th rough
ĠG ame
ap s
ell y
Ġaf fect
anc ing
ĠY et
Ġmak in
Ġsoft ware
Ġbigg er
ĠAfric an
Ġdiamond s
a ire
Ġj aw
ĠR ober
Ġpl us
ber g
Ġcr own
Ġind epend
Ġtrans gress
Ġob ject
Ġprof it
Ch icago
ĠAfric a
Ġpract ice
secut ors
R O
S ince
T alk
Ġd omin
ĠT EC
Ġsha me
Ġsp ring
Ġsu it
Ġun f
Ġfeel s
ĠZ ion
Ġfam ous
Ġwall s
Ġeconom ic
Ġeff ort
Rep ublic
Ġdiff ic
i eth
r um
Ġc ou
ĠA ir
ac hes
ac les
Ġr ow
Ġan im
Ġare as
Ġal bum
Ġwhat soever
Ġen joy
Ġun c
Ġun less
Ġcommand ment
Ġrock s
aster n
ĠInd ia
Ġanal ysis
Ġsug gest
R ef
r ick
is ters
Ġp iss
Ġd ress
ac ts
ur d
ĠC y
Ġab use
Ġfl ood
ail ed
Ġstr ateg
Ġcond em
Re al
6 7
c hen
m ade
s m
on ed
at ers
us ion
Ġwas te
ĠD irect
ĠN ORTH
ap ed
eth od
Ġcont ract
Ġfin ally
ener al
Ġleg s
Ġheaven s
Ġsat is
Ġwee ke
Ġbeast s
Ġtot al
B etter
Ġ 00
in ite
Ġs ad
le ep
Ġwe l
Ġli ved
ĠJ im
ĠH um
Ġv alley
Ġpl ates
Ġtr ick
Ġevery one
Ġen s
Ġpass ion
ru ption
Ġste al
Ġcover age
ĠMo ab
Ġvessel s
Ġcub its
ĠUN ITED
ĠAMERIC A
E T
H ave
O O
v ent
w ind
in y
Ġs na
it or
Ġl uck
Ġyou th
em ed
ĠH a
our s
ark s
ok ing
Ġcr u
Ġplay off
Ġstr anger
Ġtell ing
rop h
Ġhundred s
Ġste ad
Ġann ual
Ġtit le
I V
N e
l oy
o ah
Ġt al
Ġa ch
re ck
ha s
ha z
Ġb ab
Ġb ump
at o
Ġg en
ro at
ĠC HAPTER
Ġli qu
ce an
ra w
ĠH ouston
ak in
Ġtr uly
Ġno se
Ġcha ri
Ġcons idered
EN CE
Ġdecl are
Ġhig hest
Ġexec utive
Fl orida
ĠWilliam s
Ġlangu age
t witter
v ision
w ord
Ġd ude
ĠB ob
ri ble
Ġgr ad
Ġcomp ass
Ġrem oved
Ġass ault
Ġbel ow
Ġbo ats
ib ly
urs ed
Ġadv is
Ġkind a
Ġcond ition
Ġarm ies
Ġmanag er
Ġsy mb
Ġdig ital
Ġet ern
Ġnumb ers
H ad
p re
r in
Ġc ards
Ġf em
Ġp ound
se ll
st ance
ĠS lim
ĠJ ong
ĠD ec
ĠF C
Ġcon ce
Ġsu ffe
cc ording
Ġam ount
Ġgr ass
Ġ5 7
11 9
for th
Ġdev ices
Ġposs ession
Ġincre ased
Ġsit uation
Ġbott les
H er
n s
Ġd rew
ĠK id
Ġfe ast
Ġplay in
Ġlaw s
TH ER
Ġmain tain
ĠJan uary
ĠMark et
F L
c ar
g ame
p et
Ġl ack
Ġre de
Ġst ock
ĠD a
ĠD ef
ĠD ev
ak istan
Ġno ise
Ġro bb
ish ment
Ġcha ins
ĠCh ris
Ġcontin ued
acc ording
ĠIntern ational
6 1
S l
c ore
t wo
Ġt all
Ġh ors
le ment
erse c
Ġen for
Ġfeel in
ĠTh om
AT ES
ĠGr and
Ġneighb or
look ing
Ġeld ers
ĠCle veland
Ġsched uled
l asting
Ġa h
Ġl ink
at ory
Ġr ates
ĠB razil
ĠJ ul
ab les
Ġde ar
ĠE ven
Ġpro ve
ell er
ĠK e
Ġcl imb
Ġ201 2
ĠAf ghan
Ġcoll ect
Ġexpl ain
Ġorgan ization
Ġcand id
ĠSm ith
Ġproper ty
Ġoppos ition
F r
F ollow
f all
j ud
Ġt ail
Ġc rib
ing ers
Ġg entle
Ġn ort
Ġfor t
th let
ĠJ uly
ĠN BA
Ġain t
Ġold er
Ġask ing
Ġprov ides
Ġbott le
ĠMin ister
Ġfavor ite
ĠSn oop
Ġheark en
Ġplat form
u clear
Ġt ough
Ġb al
Ġc ard
Ġc alm
or ks
ar ies
Ġfor s
ĠS al
ĠM ill
Ġas se
Ġtw e
Ġpre m
Ġrem ind
az on
Ġroll ing
Got ta
Ġburn ed
ĠCent er
A r
F eel
I F
P er
T han
e very
Ġb ri
en ces
ĠM u
ĠM ontreal
Ġk il
ĠD addy
Ġtr unk
Ġshould er
ric s
Ġinc ident
Ġmed ic
ana an
ĠDra ke
Ġweeke nd
T oronto
a ur
p ut
v an
Ġd aw
st ood
ĠP al
os es
ĠE s
Ġad op
Ġrep ro
Ġwin ning
Ġcur se
Ġpresident ial
Ġcond uct
Some body
Ġseek ing
Ġz one
Ġsepar ate
Ġimpro ve
Mother fuck
7 6
A pr
L ife
a e
Ġto ss
at a
ur ance
Ġwh ore
Ġse lect
ĠW all
Ġdo ctor
ul ation
Ġ4 7
Ġpri or
Ġfull y
Ġroll in
Ġprom ised
TER N
Ġinj ured
eal ous
Ġspokes man
ĠViet n
b led
c ure
Ġw ings
Ġc ats
is co
Ġp ist
as c
om s
us es
ĠT hy
to gether
Ġfl ight
Ġad m
Ġdr ama
Ġins omuch
Ġdec ades
Ġcompet ition
Ġcapt ivity
Ġestabl ished
Ġmultip le
Ġpock et
ĠNick i
ste in
Ġlone ly
7 1
C H
V egas
g ain
s l
u ing
w est
ha i
Ġc itiz
es tern
Ġy ield
Ġg all
st ead
em an
Ġj ournal
ĠF BI
ĠR em
Ġwor st
Ġte ar
St op
Ġrev iew
Ġeng ine
Ġchamp ions
Ġeff orts
ĠStar buck
Ġric hes
L ast
k ish
Ġs ore
ro s
ĠT ampa
ĠS ee
ĠM att
ĠW ell
ĠH all
ant age
ĠR oc
Ġwor ship
Ġcha se
Ġcr is
Ġatt acks
Ġbur ied
Ġmur d
AT ION
Ġprev iously
Ġjob s
ĠCap it
ĠSam uel
Ġant i
ĠTur key
Som etimes
Ġhors es
S T
m ine
p oint
Ġg ates
Ġn ah
Ġha ll
ĠM ed
Ġ3 6
Ġcont act
Ġhard er
less ed
Ġact ually
ote ction
Ġfell ow
Ġsystem s
Ġoper ations
An other
Ġsudden ly
G l
J er
w hile
Ġb one
ar ia
Ġh uge
ĠT al
ĠC ons
Ġj u
Ġlo g
Ġbre aking
Ġstart s
ĠCha mp
Ġtest im
ĠPol ice
ĠPar is
Ref rain
D id
E d
g ent
g then
p her
u k
he art
in ner
Ġf ame
en ess
as ters
Ġhe s
Ġst ream
ĠM ars
ĠH ook
ol ks
ap news
Ġpe ep
Ġch op
Ġkeep ing
Ġrem ained
ens ion
Ġreal ity
Ġmom ma
Ġdiffe rence
Ġple asant
Ġris ing
ĠGO P
ĠOlymp ics
eng ers
Ġlawy er
Ġsuffe red
i be
Ġs orry
Ġc attle
ĠB et
ĠL ee
ĠP ut
Ġcl ick
Ġco ke
Ġdel ight
Ġac qu
Ġsol ution
Ġprev ent
Ġill eg
Ġfil m
Ġdesc rib
kn own
ĠST ATES
ĠEph raim
A re
S u
Ġa ward
Ġf unk
or ter
le ction
ĠT HE
ĠS l
Ġse m
hen s
ĠR y
ĠE very
Ġpl aced
Ġear n
Ġbring ing
Ġdec ided
cer tain
Ġinte gr
Ġtreat ment
Ġopportun ities
Ġagre ement
d id
e ven
i ot
Ġt ied
ha nt
on se
Ġc her
Ġf ier
Ġl osing
ic an
us ing
Ġst om
ĠM ane
Ġv en
pt on
Ġqu ality
Ġnight s
ĠĠ ĠĠĠ
har d
ci ence
Ġroll ed
Ġcond itions
Ġpur cha
Ġindust rial
pro f
Ġmag n
Wh ite
Ġbes ide
Ġpros per
U p
s ay
Ġs ens
at an
Ġth under
im ent
Ġr ough
Ġas ide
ĠThe ir
hi o
Ġsp ort
ĠHe re
Ġcont ain
Ġsk ills
ĠAs ia
Ġwin ner
Ġfil ed
Ha ha
Pl us
ĠEd monton
Ġholl a
ĠTechnav io
U T
W ednesday
g ment
Ġw ack
Ġf ra
Ġf old
Ġg ift
Ġre ject
Ġwh ip
ĠC oll
ĠD en
ass ar
Ġwr iting
Ġkeep s
Ġcount er
Ġsupp ose
ci ent
Ġap art
Ġtre nds
Ġreign ed
Ġnet work
sy ch
oura ge
Pe ople
! !
B oy
F ER
H N
a ac
l om
t ies
Ġt ip
Ġc ream
ll a
Ġd edic
Ġst orm
Ġwe bs
Ġup d
ĠD id
ort ion
ĠO THER
Ġsp orts
Ġbl ame
Ġbr ass
Ġter m
ĠFr anc
Ġgener ations
rem iah
Ġed ge
Ġhust le
Ġfail ed
Ġweap on
Ġimmigr ation
Ġspl it
asket ball
A ye
Ġ ir
Ġt ired
Ġs ke
Ġo be
Ġb i
Ġd il
Ġh ill
al so
and er
if est
ĠR od
Ġkn ees
Ġpro gress
ĠO ur
Ġsc ar
Ġch oice
Ġpass ing
Ġ7 3
oc key
up reme
Ġwin ter
Ġprodu ce
Ġhom es
Ġsong s
Ġdesp ite
ĠNot orious
Ġcontrib uted
ĠJack son
Ġdiffic ult
I G
s aying
ed y
as p
Ġst ack
ĠB one
ĠL ab
Ġj oint
Ġdo ct
Ġcl ock
Ġthen ce
ob oam
ĠHe z
Ġret ail
Ġopen ing
ned y
On ce
Ġball s
TH E
Ġlab or
ĠComm ittee
Ġbreat he
ĠMore over
ĠNever theless
Ġcla ims
ĠMich igan
D e
J e
P ull
f our
he th
Ġp uff
ĠI ts
Ġh oo
ĠA N
ĠS ch
Ġr ank
Ġli ber
ĠL ook
un ched
ag n
Ġnum bered
Every thing
Ġdog s
Ġsmok ing
OL O
Ġeduc ation
Ġtom orrow
Ġspec ific
8 5
E AL
T oo
T ai
l aw
u a
u ce
w orks
Ġt ie
Ġf ought
Ġd uck
Ġre ward
ir ates
ĠT re
Ġr are
em p
ĠF rom
Ġtr igg
Ġknow ing
Ġ201 3
ĠIt aly
Ġprov ided
Ġph ot
Ġlear ning
Ġcent ral
iet y
Ġprec ious
Col orado
Ġdeter min
Ġmach ine
Ġexact ly
g g
g ers
r d
y m
Ġb ounce
ic ations
Ġha ven
Ġst ories
Ġwh ither
ĠM at
ĠL ondon
Ġas hamed
Ġsa bb
ĠJ eezy
ĠP u
Ġcom mer
Ġwhere in
Ġany one
Ġ6 3
Ġinclud ed
Ġappe al
Ġresp onse
Ġden y
ĠSyri an
ij ah
Ġchamp ion
Ġalleg ations
Ġvehic le
roph one
8 1
A b
g ly
ar re
ur rection
ĠM ass
ĠH ome
ag s
qu od
ond er
Ġsc reen
Ġte en
Ġ4 1
Ġ6 5
Ġ8 0
St ar
Ġfall ing
Ġdri ver
Ġwa x
Al ice
Ġla unch
Ġsqu ee
ĠPe quod
Ġhust ler
Ġmir ror
Ġspo il
OLO GY
Ġsabb ath
8 3
d amn
m uch
r ated
or ne
Ġl in
Ġwh is
ĠG ood
hi b
ount ain
per m
Ġacc ident
Ġhelp ing
Ġsil ence
Ġfre edom
Ġdist rib
Ġrid in
Ġcaptain s
Ġvine yard
Ġdanger ous
H L
Ġs and
er c
Ġb at
Ġf ired
Ġp age
Ġp air
Ġto ol
ot i
nt il
ĠB eth
ĠG eneral
ĠW ind
ra v
ĠN or
ol es
Ġevery where
anc hes
Ġsw itch
Ġhapp ens
Ġmov es
right eous
Ġter ms
Ġob l
Ġrequ ired
Ġpain t
Ġstren gthen
Ġver se
Ġmag ic
por ate
Ġdise ase
FER ENCE
8 6
o oth
p ress
Ġf ashion
Ġl it
ĠM il
ĠM AN
ĠM iami
ĠL ong
ter m
Ġj ealous
ĠR ob
Ġpl ane
Ġab ility
Ġsw ing
Ġsur round
ene ath
Ġbook s
there fore
Ġjudg ments
Ġbird s
ĠCON FERENCE
8 4
L isten
M ic
f ast
he ther
Ġa thlet
Ġm ast
Ġf aster
id el
Ġst ation
ĠL amb
and a
ĠAnd re
ĠR oss
ĠR eg
itt y
Ġsc ript
ok ed
Ġun ique
Ġsm ite
az y
ĠSp ain
ĠJe ff
Ġstri ke
Ġauthor ity
Ġfool ish
Ġcost s
Ġden ied
Ġdesign ed
Ph oto
7 9
A y
E E
p ers
p ower
t han
Ġw id
Ġw ave
Ġst ress
Ġst unt
ĠM ina
ck now
ĠP akistan
um ble
ag ement
Ġsp ray
Ġ4 4
Ġcomp ut
ile ad
ov a
Ġdes olate
Ġem ot
Ġind ex
Ġang ry
Ġinj uries
ĠJon athan
Pol ice
A naheim
O ver
Ġm ort
Ġd irt
Ġh ither
ic ious
Ġhe ro
id s
ĠA z
ĠT op
ĠM ad
ĠM ur
Ġas soci
The m
ĠO ffic
ure ly
of t
Ġhead ed
Ġsecond s
Th row
Ġswe at
ĠWh ich
ĠCent ral
Ġble ed
W ill
m un
n oon
p ent
Ġs ack
Ġp ool
Ġn ature
Ġn uclear
et te
Ġhe ed
ĠB ent
ĠG reat
Ġsh ock
ord in
Ġpr im
iz es
Ġke ys
Ġ7 0
ict ions
ru its
Ġlaw su
Ġset t
Ġ14 6
Ġsix th
Ġadv anced
ĠSe an
Ġest im
Ġpat ients
Ġsurv ive
Ġnut s
ĠSep t
asse h
Ġtast e
8 2
D r
Q u
n on
p rop
r ig
w oman
Ġl ion
Ġg re
as ion
et ed
ĠS upreme
ur t
Ġr ub
ĠC anaan
ĠB ank
ĠH el
Ġwill ing
Ġle aves
Ġper m
ĠAl so
Ġche ese
Ġexp ress
Ġsound s
Ġdepart ment
Ġav oid
Pl ay
Ġtrad ition
ĠJust ice
Ġchallen ge
Ġsignific ant
R oll
c are
h on
l ied
t ag
Ġt ape
in ter
Ġf av
Ġn igh
om a
am ing
il i
ĠL ike
ĠF ore
Ġ4 5
ĠCh ief
Ġthink in
Ġmother s
Ġsw im
Ġstat us
Ġref uge
Ġstud ent
Ġtem per
hem la
Ġdiv ision
Ġdecl ared
Ġdefe nd
ara hemla
Ġstret ch
oog le
cure ment
C HAPTER
Ġ |
Ġw ounded
Ġc rook
Ġp or
Ġp ants
ĠI I
Ġu gly
ĠB er
ra h
ĠH ol
out s
ĠO ut
Ġfl u
ans as
Ġam id
be hold
ho ot
az z
Ġ9 0
form ation
Ġhot el
ific ation
ĠLev i
Ġemer gency
Ġmanufact uring
Ġnecess ary
HN OLOGY
ĠMina j
H igh
e er
f ord
l ah
l ife
u ps
Ġt one
Ġm ale
Ġf ingers
ic ation
st ate
ri ve
ĠF ort
Ġar med
ĠIs aac
Ġco at
Ġatt end
Ġsent ence
imp ly
Ġmic rophone
Ġble w
Ġshad ow
Ġfulf illed
Ġpubl ished
Ġasse mb
Ġa cknow
Ġm ent
ĠI T
ac ing
st one
oo per
ra ight
Ġbut t
ĠK now
Ġsc ient
Ġcr imes
Ġcons erv
ON D
Ġpray er
Ġhom ies
Ġrul ing
Ġfaith ful
Ġcre ep
Ġhon or
Ġdet ails
Ġleaders hip
T ampa
w ould
ar ily
ar ters
ro l
ill ing
el er
ĠH en
ĠR ec
Ġgo sp
ul ous
Ġpr ices
Ġafter noon
cl aim
az a
Ġheat hen
Ġneg oti
Ġmill ions
ĠRober t
Ġbri ef
ĠChamp ions
a res
p ir
w ing
Ġs ite
Ġc ake
es se
en ger
Ġe ating
ĠS ing
ĠM ob
ĠD es
ĠD am
ĠH ilton
ĠR ic
ood s
Ġlo ot
Ġfl ocks
Ġrem nant
oss ible
Ġwar ning
Ġste ady
ĠJe remiah
Ġexper ien
Look ing
ĠComm un
Ġpartic ip
Ġbud get
Ġorganiz ations
Ġobe y
X X
u ild
Ġc ents
Ġp et
Ġp icked
as y
ro ke
ter day
un ning
um s
Ġcon gress
ĠO hio
Ġsc attered
Ġour selves
ial s
Ġwr ist
ru ary
Ġown ers
Ġever lasting
Ġrest aur
Ġtak in
Ġadv antage
ĠJe ho
Ġref lect
Ġtechn ologies
Ġtem pt
Ġcustom er
Ġforg ive
ĠCo ast
Ġport ion
ĠKen nedy
Ġbapt ized
Ġresident s
I ll
O W
c alled
e zy
k ind
Ġa st
Ġs ne
Ġw aves
Ġm arch
se qu
ad er
ck s
Ġsh ook
ess or
ĠH ot
ist ered
ĠE U
ge nd
ĠK illa
Ġro ot
Ġdid st
Ġbre ast
Ġdis appe
Ġhar po
Ġact ing
Sh ow
Ġconf idence
ĠMan asseh
EN E
ĠCar ter
Ġbull et
yri a
Ġslow ly
ĠGe orge
Ġetern al
Ġcris is
Ġgosp el
r ical
t op
Ġ {
Ġt ourn
Ġm igr
Ġm ental
Ġp ed
Ġl ic
Ġha m
ad s
ĠS ar
ĠC a
ĠM en
ist le
own ed
Ġtr acks
ap tain
Ġoff ers
Ġshe d
eth ing
Ġbr ick
Ġyoung er
Ġrap id
Ġdiv ided
Ġprogr ams
ĠSc ott
Ġident ify
Ġarri ved
ĠAtlant a
ĠIslam ic
Jer usalem
K illa
f ire
l iam
m ates
n ame
r ont
er ous
Ġc ow
Ġst ir
ĠS atan
Ġse as
ĠG ree
ĠJ u
if ying
ĠH aw
ĠF ox
Ġkn ee
Ġcon sec
Ġab und
Ġ5 2
ob ody
az in
Ġsw ift
Ġchan ging
Ġatt ract
Ġshow ers
Ġapp re
Ġact s
Ġins ights
Ġdead ly
Ġuh h
Ġprot est
Ġsuccess ful
Ġocc ur
ĠLu pe
Ġboo st
Ġtrib es
Ġrad io
ĠTal ib
. '
D av
U E
g ood
u zz
v a
in i
Ġb eneath
Ġd om
Ġth rew
Ġst or
ĠC oun
ĠB ell
all s
Ġnot ice
est ic
ĠN FL
ĠN assar
ag on
ab ama
ak a
our ces
Ġex change
ond uct
Ġpr ince
Ġpart ies
Ġgreat est
anc he
Ġent ertain
Ġ13 9
Ġmind s
Ġcontin ually
Br ing
Ġhop es
Ġcertain ly
Ġsy n
Ġcrit ical
Ġbord ers
Ġconcern s
Ġtro ops
liam ent
G A
W ould
b on
d on
ou ble
Ġb old
Ġb ail
it a
Ġd igg
Ġg ives
Ġu lt
ac her
ĠC r
ĠW eezy
ĠR iver
Ġv o
Ġab road
ĠK ong
Ġbr anches
Ġam azing
of fe
Ġsc en
ĠIs h
Ġcr ash
Ġhigh ly
Ġdev ice
cha nt
Ġschool s
Ġmod ern
Ġcarry ing
Ġdam age
ĠOff ice
Ġtestim ony
Ġdil ig
E n
T ime
g en
Ġs imply
Ġo ath
Ġb ills
ĠC ont
ĠG al
ie ce
Ġpl enty
Ġtr ump
Ġknow eth
Ġex cell
Ġcl ip
Ġqu al
Ġsl ide
Ġany body
Ġ201 1
ĠLe ban
Ġsur vey
Ġmor row
Ġdem on
Ġburn ing
stit ute
Ġgar ments
Ġaddition al
ĠFeb ruary
Ġenfor cement
Ġnort hern
C ould
P R
S aid
w ild
w ords
in ct
Ġc ode
an i
Ġyou re
ĠA p
Ġj ury
Ġv ac
Ġsp in
Ġcl ap
Ġch icks
Ġdes ce
Ġtre m
Ġplan ned
there of
ffic ient
Ġtrad ing
Ġmem o
Ġclos er
Ġhung ry
ĠOct ober
Ġanalyst s
ĠDiv ision
Ġsatis f
Ġwel come
ĠBent ley
C r
f ol
p ret
r id
t ake
u als
Ġp ig
Ġd istrict
ve re
im ately
Ġwe alth
est in
ess ions
Ġal right
ip ment
Ġfl ock
Ġturn s
ĠAm azon
Ġconf ir
Ġfly ing
20180 53
Ġpat ient
ĠJo ab
Ġsanct uary
ĠMart in
Ġorigin al
Ġwebs ite
2018053 000
I nd
U M
g un
o z
r ang
Ġw ont
Ġw reck
Ġm ild
Ġf o
an ks
ay ed
Ġhe ight
Ġre act
ĠS O
Ġk it
ĠH ell
ĠH olly
ĠN eb
Ġj eans
Ġman ifest
Ġbr icks
Ġnow here
Ġfl ash
Ġte xt
Ġcha mber
land s
Ġret ire
Ġcut s
Uh h
Ġexper t
Ġhist or
Ġelect ric
ĠInt er
Ġenter pr
ias co
Ġlawy ers
Ġbenef its
ĠSte ve
Phil adelphia
Ġswall ow
M ark
W ord
e ction
i at
l ock
Ġ #
Ġt or
it ation
ll y
Ġp ap
Ġl am
ar row
am ong
ĠT w
ĠS perm
ĠC lin
ĠB owl
od ay
ol i
ĠF iasco
Ġgo eth
Ġover all
Ġcomp lex
end er
Ġbit ter
Ġwr ought
Ġem ail
Ġsupp ly
Ġsent enced
Ġwhe el
Ġcor rect
Ġinn oc
Ġpo ison
Ġagre ed
ĠPac ific
Ġabomin ations
Ġmeas ures
Ġneighbor hood
Ġcommer cial
9 0
A yo
P op
P ost
T w
b id
h igh
l or
Ġb ree
Ġd read
Ġg host
ĠS and
ĠS hall
Ġr am
ĠB ur
ĠL aw
com p
Ġmin or
Ġrel ig
Ġmove ment
Ġinst ant
Ġter rible
Ġpur ple
Ġeas ily
Ġhon our
Ġanal y
ĠGl ock
Ġbus y
Ġbase ball
Ġestabl ish
Ġrepe ated
Ġgiv eth
Rem ember
Ġlegisl ation
1 00
A H
H ot
O ur
Ġs ust
it ar
Ġc ateg
Ġp unk
Ġp ushed
et ime
Ġfor ced
Ġr um
Ġr ip
ĠC ole
ĠB lessed
ch ief
el ine
Ġj et
qu e
Ġsc ience
Ġhat ed
og raph
Ġgirl friend
Ġshow ing
Ġ15 5
Ġinvest ment
Ġball in
Ġob tained
Ġple asure
Ġce ase
Ġfig ures
Ġpit ched
ĠBrit ain
ĠDirect or
ĠThom as
8 7
K n
N ah
c r
c ons
f ive
n ie
u y
Ġa irl
ha fuck
Ġm a
Ġto ols
ic ing
Ġhe av
Ġfe ared
Ġcomp ared
cl us
Ġqu een
Ġ7 1
Ġsm ack
Ġgood s
Ġrem ove
Ġhar m
ĠY o
Ġhel ps
Ġfound ation
Th ree
ĠFr ank
Ġfact ors
Ġple ased
Ġexpl os
ĠComm ission
ĠDan iel
sha lt
ĠChi ld
Ġlin en
E X
T uesday
U ntil
Ġb unch
Ġg arden
ic ip
ĠT er
Ġwith d
ĠB as
ĠR oman
res pass
ul a
ate gy
ĠE N
ĠO l
we ar
Ġcomm ission
Ġres c
Ġ6 6
Ġserv ing
ĠAl abama
Ġadd ing
Ġinc ense
Ġpop pin
Ġstat utes
Ġdirect ly
Ġconsum er
Ġcurrent ly
yn n
Ġutter ly
Ġapplic ations
Ġsubur bs
Americ an
ĠEar th
Ġliqu or
Ġfem ale
U L
W as
d oor
o a
r ome
t urn
t ics
y l
Ġt ent
Ġs ample
Ġo cean
Ġp ounds
Ġp sych
id ers
ad em
ĠS ub
Ġr ings
Ġup per
Ġsha wty
ĠR ight
ak im
ok yo
ĠSt r
Ġrep orters
ĠĠ ĠĠ
Ġtou ched
Ġeight h
Ġlevel s
Ġfoc used
might y
Ġindepend ent
ĠTEC HNOLOGY
" )
J ud
m aid
w ent
he y
Ġa ston
Ġp ills
Ġd im
Ġd are
ic ians
im me
ri an
ĠJ AY
ĠP an
ĠW hile
ra pped
ant uck
pe i
ast y
Ġcan cer
ort y
Ġsp erm
Ġgr anted
hor ities
ĠZ arahemla
ev in
ĠNo ah
go ing
Ġla unched
ĠHow ever
Ġiss ued
Ġlab el
Ġshew ed
Ġreve aled
Ġstrugg le
Ġign or
inite ly
C ha
S outh
w ater
Ġ ^
Ġo ption
Ġo pin
Ġf uel
Ġp ace
an ish
Ġto w
ĠI ce
Ġn erv
Ġha bit
am m
ĠB iz
est y
ab out
Ġcom ments
Ġcl in
Ġcl ient
Ġch ose
Ġgood bye
oc a
ĠIn n
ĠZ W
Ġstand s
Ġ13 7
Ġrest r
Ġinst rum
Ġcoll abor
Ġlim ited
Ġiniqu ities
Ġmem ory
Ġord ered
Ġchallen ges
ĠSec urity
Cloud s
ĠServ ice
Ġlawsu it
9 1
9 9
S n
m ay
p ri
s hi
Ġo dd
Ġf et
ĠI S
Ġn omin
ent ure
ĠS qu
ĠC ast
Ġj am
Ġby e
Ġv eter
Ġex erc
Ġsome what
ĠHe ar
Ġsin ned
Ġdes ired
Ġpower ful
Th ough
Ġgold en
Ġcry ing
Ġel imin
Ġsol id
Ġty p
Ġmod els
Ġfield s
Ġsqu are
ĠSec ret
Ġsurpr ise
Ġvar ious
Ġbath room
ĠHez ekiah
R s
b ar
k er
k rain
w alk
Ġt orn
on na
at i
ĠI d
se a
ad i
ce ived
ĠP rem
ĠD ick
ĠH ov
av in
com es
ĠIn s
Ġmak eth
Ġblock s
Ġrul ed
Ch rist
Ġreb ell
Ġfoot ball
Ġscream ing
Ġequ ipment
Ġsus pe
Ġthug s
Ġhy p
ĠNe ither
ĠSa udi
org ia
Tai wan
ĠCoun cil
U P
Ġb ul
Ġm ap
Ġm ourn
Ġf oul
Ġf olks
Ġd inner
Ġg ay
ĠA re
Ġu ne
Ġre asons
Ġme re
Ġr ims
ĠM aster
Ġ( "
ĠG en
ri e
Ġover time
Ġrem ark
Ġ8 9
Ġsec ure
Ġgu ests
Ġbull ets
Ġmet al
Ġstri p
Ġdro ve
Ġreb ounds
Ha haha
ĠBrit ish
Ġdism iss
Ġaccom pl
Ġplayoff s
Ġach ieve
c ip
f oot
g ive
s ome
is ha
Ġd ire
ig ure
ĠA tt
ĠL ud
ĠG oogle
ab ilities
ĠR on
Ġkn ife
Ġde b
ĠE ric
Ġcl ients
Ġ4 3
ĠZ eal
Ġact in
Ġ14 7
Ġstrong er
Ġprom ot
Ġsell ing
ĠMc C
ĠJust in
ĠTur kish
Ġpict ures
Ġjew els
D own
E I
b ed
Ġ ,
Ġw ound
Ġp ip
ow nt
Ġth roat
al ty
ĠS un
ter y
ĠF ar
ĠR i
ĠO F
Ġbr own
iv in
Ġfl at
Ġpr otection
Ġevery day
og an
Ġim ages
Ġworld wide
az ar
St ay
Ġtalk ed
ĠLe hi
Ġprop os
rib es
Ġstep ped
Ġshort y
Ġcor ruption
Ġviol ent
Ġconsum ers
Ġcharac ters
Ġaff ord
Ġchair man
Ġvehic les
ĠPhar rell
ĠAug ust
Ġmedic ine
" ,
f in
l i
r ison
Ġo l
ha les
Ġp in
Ġd ad
ar ant
ĠI ve
ke ls
ĠL as
ct ions
em on
ag ne
ĠE nt
Ġpro curement
ĠO ak
hi re
Ġsp are
ren cy
Ġro d
Ġch ronic
Ġgreat ly
St and
row s
Ġjud ged
Ġ15 7
Ġadv oc
AN D
Ġbur y
ĠMr s
Ġver ily
Ġequ al
Ġpush ing
Ġjump ed
Ġben ch
ĠAnt on
Ġgiv in
Ġdip lom
Ġpist ol
J esus
M ar
R ain
W alk
c a
r ation
Ġs aints
er to
Ġb ows
et ts
Ġth ither
ut s
Ġhe al
ĠA I
oo re
ĠM ag
ĠL im
ĠL ake
ĠD ie
ĠH an
ĠF irst
Ġsp ir
ĠU krain
Ġgr ant
Ġsl ight
Ġsl ang
Ġpre y
Ġdis play
Ġreal ize
ma el
Ġrel ated
Ġsub stance
Ġfool s
Ġchick en
Ġmag az
lyn n
Ġpock ets
Ġmanufact ure
Ġdetermin ed
ĠZeal and
A hh
H op
N obody
T op
b les
c ol
m as
p hat
Ġw ars
Ġb att
Ġp il
Ġp oured
ver se
Ġst ocks
ĠB all
ĠB ook
ĠB ird
el come
ĠJ am
if ty
Ġj oke
ĠK n
Ġdid nt
Ġfl ame
oy age
we et
ĠSt ep
ER S
Ġimp ress
Ġimp lement
Ġstand ard
ĠJud ge
Ġfree ze
mon y
Ġoper ating
ĠCl ub
Ġce re
Ġpos itive
ij u
ĠPl ay
ĠAssoci ation
Ġbeaut y
Ġly rics
Ġhol es
Ġremem bered
) ;
U nder
u cha
v ior
Ġb om
Ġm al
Ġf urn
Ġd udes
Ġhe n
ke ep
ad ium
Ġmy ster
ĠC all
ĠG ive
op h
Ġdo eth
Ġv ast
ud d
ass ador
Ġlo yal
Ġtw ist
Ġsc rew
Ġshould n
og rap
Ġnever theless
Ġres urrection
Ġpol ic
Ġfam ine
Ġnor m
Ġdec isions
Ġstay ed
Ġele v
Ġmil k
Ġob v
Ġrul er
Ġfre qu
Ġhop ing
Ġdecl ined
Ġfle x
Ġremain ing
ĠTech n
Ġord ers
Try na
rr rr
Ġrej o
Ġcomplete ly
Ġinflu ence
ĠAfghan istan
Ġdescrib ed
I O
s n
u ate
Ġthe res
Ġd ies
Ġy ay
Ġg if
Ġg ird
ĠI N
ic on
ĠT own
ĠB ush
Ġ( $
ri p
ĠF ederal
Ġde bt
Ġso ci
ĠE lect
Ġpl ed
Ġsu p
are r
man y
St raight
Ġimp ossible
Ġrel ax
head s
Ġref used
Ġsmall er
Ġvict im
Ġcover ing
ĠPol and
Ġstret ched
Ġmob ile
Ġcab in
Ġconfir med
B itches
S SW
U C
c ount
f ound
l ar
v is
Ġt respass
Ġs illy
Ġc oc
Ġf ed
Ġl ane
ac hel
ent ially
im um
Ġre comm
ĠS oc
ly ing
ĠL o
ĠG ad
ĠG ilead
ĠJ ared
ĠP uff
Ġshe ll
Ġbr ings
Ġbr ains
Ġlet ters
day s
Ġshould ers
Ġ201 0
Ġwat ched
Ġhard ly
Ġdep ort
ph one
Ġwa ist
Ġdec ade
Ġtra il
ĠAr gent
Ġair port
Ġexper ts
Ġtem por
AR E
ony m
Ġdiv ide
Ġpos itions
Ġyes terday
ĠPr ince
Ġrepent ance
Ġteac hers
ĠAss yria
Ġindivid ual
Ġsquee ze
Ġharpo one
ĠLeban on
iju ana
D allas
F ore
m ate
s w
t w
z ens
Ġh ills
id ering
Ġe uro
ch ing
th ree
ra ft
ĠD u
Ġal tern
Ġpl ate
our ce
ell a
Ġsome where
end s
Ġres ol
ens es
Ġend ure
Ġind ic
Ġmon ster
Ġmost ly
Ġhold in
Ġcut ting
ĠCom pton
Ġpresident s
ik es
Ġoper ation
Ġconsum ed
ĠApp le
Ġimmigr ants
Ġpartners hip
Ġinit i
ĠMu eller
Ġcitiz ens
Ġappre ci
A ut
H uh
N ep
R ed
e em
f irst
i very
n es
it z
Ġm ethod
ed ient
Ġd un
Ġd ying
Ġto ast
Ġth irst
ig ation
Ġha vin
ĠH Rs
Ġdo zen
Ġman e
ĠK ir
ĠK urd
ĠK ansas
Ġfl ows
Ġpr ime
ĠV an
Ġwhere with
Ġworld s
Ġfeel ings
Ġown er
Ġcons ult
Ġdep th
Ġeat en
Ġnum erous
Ġbur den
Ġpray ed
Ġdrink ing
Ġsal t
Ġmar ried
ene z
Ġsold ier
Man y
Ġris ks
zz ar
Ġprison ers
Ġfac ing
ĠSam aria
Ġforg otten
Ġord in
atin um
Ġid ols
Ġtele vision
Ġprofession al
Ġcult ure
bre thren
offe e
L ove
R A
T e
Ġt ur
Ġt ap
Ġp ersec
Ġh itting
Ġbe in
Ġst iff
ĠS hi
ĠS chool
Ġr ally
ĠM edic
ĠB oth
Ġan cient
est yle
ĠF ound
use um
Ġag ree
ne ither
ub s
ub ble
av a
ish ing
Ġwr iter
Ġhead qu
Ġ8 6
Ġkill er
ib s
Th rough
Ġ0 5
Ġrap s
ĠSp anish
with standing
Ġdra wn
Ġfund ing
Ġinnov ation
Ġreven ue
Ġkil om
ĠPut in
ownt own
M C
a ith
c ase
r ous
s en
s ight
Ġa y
er k
Ġb ass
Ġm ock
Ġc ous
Ġf ile
al om
ĠB ang
Ġ1 25
em en
ĠD istrict
Ġtr ash
other s
av ed
Ġsc and
be en
Ġres ources
Ġ6 8
ĠY our
Ġdes ert
Ġdes erve
Ġapp oint
Ġap olog
Ġfr ame
ĠAm en
Ġdri vers
ES E
Ġthrow ing
Ġcorn ers
ĠQue ens
Ġappro ved
Ġforg ot
Ġexceed ing
Ġsmok in
Ġappear ance
Cloud y
ĠBa al
Ġnin th
Ġtourn ament
ĠIsh mael
9 2
D A
L ittle
c ow
f ree
Ġs outhern
re te
Ġw oo
Ġb ite
on ement
or ial
en cies
Ġl oo
le ch
Ġha ck
Ġe ase
st ances
Ġme lt
ĠR ay
the se
Ġhas n
Ġsm ooth
Ġmay est
ho le
What ever
Th ursday
Ġprop osed
Ġdisc overed
Ġwind ows
Ġob tain
Ġbar rel
Ġpost ed
ĠEx ec
Ġesc aped
Ġgri p
Ġfamil iar
Ġexc ited
Ġdocum ents
ĠRy an
ĠSept ember
OND ON
ĠHolly wood
ĠSecret ary
D es
P H
T own
U F
s ac
u j
u ous
Ġ ess
Ġt ies
Ġt ents
re r
an es
ar ry
ay lor
ĠA naheim
Ġit ems
Ġli veth
Ġsh own
Ġall ows
ĠR us
Ġpro secutors
Ġ5 6
Ġcomp re
ach us
Ġsm itten
__ __
!) ,
St ep
Ġbring eth
har m
Ġsing ing
Ġinst it
Ġbreak s
cha in
ĠMan agement
Al so
Ġhum ble
Ġpresent ed
Ġwitness es
ĠComp any
Ġfie nd
Mark et
ĠClin ton
ĠPrem ier
ĠKurd ish
N OT
S ing
W ait
c ong
e ge
h os
v y
in stein
re c
Ġm ax
Ġp ipe
Ġn a
ĠS ystem
Ġr at
ĠL ib
ce ive
ore s
Ġas leep
ĠP ri
un ger
um ent
ĠF lynn
Ġcon flict
Ġbut ter
Ġv ice
Ġun certain
Ġdep loy
Ġ14 1
Ġfore st
Ġcur ious
Ġcra ft
Al ways
Ġprot ests
Ġtouch ing
Ġsanct ions
Ġsev enty
Ġopt im
ĠGold en
Ġprophes y
Ġconvers ation
ĠCapit ol
Ġju ice
ĠPu erto
Dav id
Ġkit chen
L ONDON
N ike
w hale
Ġm ol
Ġd ump
st ers
ir cum
ĠS han
ill ah
Ġup right
ab bit
ĠR a
Ġv irt
ĠK o
ĠK night
Ġother wise
Ġtell s
Ġsing er
Ġtre as
Ġgra bb
ĠSh ow
Ġfac ts
int end
Pl enty
Ġrid ing
Ġinn ings
Wh ich
Ġident ified
Ġconv icted
Ġgentle men
ĠVietn am
EAL TH
Ġdemon str
W elcome
d is
p ired
r ant
r ors
w orld
Ġm aid
Ġf ancy
Ġg e
ac ris
ro ve
ĠC are
ĠP enn
ĠH EALTH
Ġare n
ĠE v
Ġpl ague
Ġsu icide
ĠK elly
Ġlo ving
Ġar ch
ne ver
Ġthr own
oin ting
ov ing
Ġhar p
Ġem br
ĠAs h
Ġexp ressed
Ġplan et
Ġplan ning
Ġsend ing
Ġaw a
Ġrev olution
iff s
ĠEx change
ear th
Ġdevil s
Ph one
Ġmix ed
Ġobs erve
Ġrespons ible
Ġchari ots
ĠTalib an
fol io
Ġinnoc ent
4 00
E gypt
g a
l ings
l ights
u ated
w l
Ġ x
Ġs ittin
Ġw oah
Ġo p
Ġp unch
Ġd er
le ans
ĠA R
ĠA ha
Ġe gg
am er
Ġwe aring
Ġr ail
ĠD irty
res pect
Ġal ert
ĠE le
Ġbl azin
Ġlet s
ĠSt and
Ġen han
Ġpre fer
Ġass ess
ens ions
Ġpres erve
ott ed
Ġins ane
Ġ15 9
Ġwha ling
Ġprov iding
As k
Ġref er
ĠEgypt ians
Ġmar ijuana
Ġsuck er
ĠOr leans
Ġteac her
Ġbeha vior
ĠDar ling
Ġdedic ated
Ġphot os
Ġprim ary
Ġdom estic
Ġkilom eters
B S
D rop
Q ue
S te
T V
r ine
Ġ ~
it ary
Ġf ir
ĠI ra
ĠC D
ĠC ad
ĠL ove
